{
  "version": "1.0",
  "truncation": null,
  "padding": null,
  "added_tokens": [
    {
      "id": 0,
      "content": "[PAD]",
      "single_word": false,
      "lstrip": false,
      "rstrip": false,
      "normalized": false,
      "special": true
    },
    {
      "id": 1,
      "content": "[UNK]",
      "single_word": false,
      "lstrip": false,
      "rstrip": false,
      "normalized": false,
      "special": true
    },
    {
      "id": 2,
      "content": "[CLS]",
      "single_word": false,
      "lstrip": false,
      "rstrip": false,
      "normalized": false,
      "special": true
    },
    {
      "id": 3,
      "content": "[SEP]",
      "single_word": false,
      "lstrip": false,
      "rstrip": false,
      "normalized": false,
      "special": true
    },
    {
      "id": 4,
      "content": "[MASK]",
      "single_word": false,
      "lstrip": false,
      "rstrip": false,
      "normalized": false,
      "special": true
    }
  ],
  "normalizer": null,
  "pre_tokenizer": {
    "type": "ByteLevel",
    "add_prefix_space": true,
    "trim_offsets": true,
    "use_regex": true
  },
  "post_processor": {
    "type": "ByteLevel",
    "add_prefix_space": true,
    "trim_offsets": true,
    "use_regex": true
  },
  "decoder": {
    "type": "ByteLevel",
    "add_prefix_space": true,
    "trim_offsets": true,
    "use_regex": true
  },
  "model": {
    "type": "BPE",
    "dropout": null,
    "unk_token": null,
    "continuing_subword_prefix": null,
    "end_of_word_suffix": null,
    "fuse_unk": false,
    "byte_fallback": false,
    "vocab": {
      "[PAD]": 0,
      "[UNK]": 1,
      "[CLS]": 2,
      "[SEP]": 3,
      "[MASK]": 4,
      "2": 5,
      "¡": 6,
      "¢": 7,
      "£": 8,
      "¤": 9,
      "¥": 10,
      "¦": 11,
      "§": 12,
      "¨": 13,
      "©": 14,
      "ª": 15,
      "«": 16,
      "¬": 17,
      "®": 18,
      "¯": 19,
      "°": 20,
      "±": 21,
      "²": 22,
      "³": 23,
      "´": 24,
      "µ": 25,
      "¶": 26,
      "·": 27,
      "¸": 28,
      "¹": 29,
      "º": 30,
      "»": 31,
      "¼": 32,
      "½": 33,
      "¾": 34,
      "¿": 35,
      "ã": 36,
      "ä": 37,
      "å": 38,
      "æ": 39,
      "ç": 40,
      "è": 41,
      "é": 42,
      "ï": 43,
      "Ġ": 44,
      "Ģ": 45,
      "ģ": 46,
      "Ĥ": 47,
      "ĥ": 48,
      "Ħ": 49,
      "ħ": 50,
      "Ĩ": 51,
      "ĩ": 52,
      "Ī": 53,
      "ī": 54,
      "Ĭ": 55,
      "ĭ": 56,
      "Į": 57,
      "į": 58,
      "İ": 59,
      "ı": 60,
      "Ĳ": 61,
      "ĳ": 62,
      "Ĵ": 63,
      "ĵ": 64,
      "Ķ": 65,
      "ķ": 66,
      "ĸ": 67,
      "Ĺ": 68,
      "ĺ": 69,
      "Ļ": 70,
      "ļ": 71,
      "Ľ": 72,
      "ľ": 73,
      "Ŀ": 74,
      "ŀ": 75,
      "Ł": 76,
      "ł": 77,
      "Ń": 78,
      "ãģ": 79,
      "ãĢ": 80,
      "ãĤ": 81,
      "ãĢĤ": 82,
      "ãģĦ": 83,
      "ãģ¦": 84,
      "ï¼": 85,
      "ãĥ": 86,
      "ãģ£": 87,
      "Ġãģ": 88,
      "Ġå": 89,
      "ï¼ģ": 90,
      "ãģ¯": 91,
      "ãģĹ": 92,
      "ãģŁ": 93,
      "ãģª": 94,
      "Ġç": 95,
      "ãģ§": 96,
      "ãģĻ": 97,
      "ãĤĪ": 98,
      "ãģ£ãģ¦": 99,
      "ãģķ": 100,
      "ãģ¾": 101,
      "ãģ«": 102,
      "§ģ": 103,
      "Ġç§ģ": 104,
      "Ġæ": 105,
      "Ġãĥ": 106,
      "ãģķãģĦ": 107,
      "Īãĥ": 108,
      "ãģł": 109,
      "Ġè": 110,
      "Īãĥł": 111,
      "ãĤĭ": 112,
      "ãģĨ": 113,
      "ãĤĮ": 114,
      "ĠãĥĪãĥł": 115,
      "ãĤĴ": 116,
      "ãĤĵ": 117,
      "ãģ¡": 118,
      "ãģ§ãģĻ": 119,
      "ãģĭ": 120,
      "ãģªãģķãģĦ": 121,
      "ãģı": 122,
      "ãģĮ": 123,
      "ĠãĤ": 124,
      "ãģĳ": 125,
      "ãģ£ãģŁ": 126,
      "Ġç§ģãģ¯": 127,
      "Ġé": 128,
      "ï¼Ł": 129,
      "ãģį": 130,
      "ãĤį": 131,
      "ä¸": 132,
      "ãĢģ": 133,
      "ãģ¾ãģĻ": 134,
      "ãģĹãģ¦": 135,
      "½¼": 136,
      "¡Į": 137,
      "ãģ¨": 138,
      "ãģĵ": 139,
      "Ġå½¼": 140,
      "ãģĽ": 141,
      "ãĤĬ": 142,
      "å¤": 143,
      "ãģĹãģŁ": 144,
      "ĠãĥĪãĥłãģ¯": 145,
      "ãģ®": 146,
      "ĠãģĬ": 147,
      "Ġãģĵ": 148,
      "°Ĺ": 149,
      "ãģĬ": 150,
      "ãĤī": 151,
      "è¡Į": 152,
      "Ġä": 153,
      "ãģ¿": 154,
      "ãĤģ": 155,
      "ãģ¤": 156,
      "ãģĦãģ¦": 157,
      "æĿ": 158,
      "ĠãĤĦ": 159,
      "ãģĦãģ§": 160,
      "æ°Ĺ": 161,
      "ãģĤ": 162,
      "Ġå½¼ãģ¯": 163,
      "æĿ¥": 164,
      "äº": 165,
      "ĩº": 166,
      "ãĤĦ": 167,
      "ãģĦãĤĭ": 168,
      "ĠãģĿ": 169,
      "ĠãĤĤ": 170,
      "Īå¤": 171,
      "Ĳ½": 172,
      "ãĥ¼": 173,
      "ĠãģĤ": 174,
      "ãģĳãģ¦": 175,
      "è¦": 176,
      "ãĤĤ": 177,
      "Ĳ½ãģ¡": 178,
      "§ä¸": 179,
      "ĥķ": 180,
      "Ġåĥķ": 181,
      "ĠèĲ½ãģ¡": 182,
      "Īå¤«": 183,
      "§ä¸Īå¤«": 184,
      "īĭ": 185,
      "ĭĿ": 186,
      "ãģĪ": 187,
      "ãģŃ": 188,
      "ãĤĵãģł": 189,
      "ä¼": 190,
      "ħ¥": 191,
      "ãģĦãģĦ": 192,
      "ĠãģĻ": 193,
      "Ġå¤": 194,
      "Ġèµ": 195,
      "ãģĹãģĦ": 196,
      "ãģłãģķãģĦ": 197,
      "ãģıãģłãģķãģĦ": 198,
      "ãģįãģªãģķãģĦ": 199,
      "ãģŀ": 200,
      "ãĤĥ": 201,
      "Ġãģ©": 202,
      "Ġãģķ": 203,
      "ãģ¾ãģĽ": 204,
      "Ġç§ģãģ¯å": 205,
      "Ġä¿": 206,
      "ãģ£ãģ¦ãģ¿": 207,
      "ĠãĤĦãĤģ": 208,
      "Ġèµ·": 209,
      "ª°": 210,
      "¾ħ": 211,
      "åĩº": 212,
      "çĿ": 213,
      "ãģĦãģŁ": 214,
      "ãģªãģĦãģ§": 215,
      "ãģ¾ãģĹãģŁ": 216,
      "ãĤĴãģ¤": 217,
      "ãĤĵãģ§": 218,
      "ĠãĥĪãĥłãģ¯æ": 219,
      "ĠèĲ½ãģ¡çĿ": 220,
      "Ġä¿º": 221,
      "ĠèĲ½ãģ¡çĿĢ": 222,
      "ĿĻ": 223,
      "ãģĴ": 224,
      "ãģĶ": 225,
      "ãģĿ": 226,
      "ãģĦãģ¾ãģĻ": 227,
      "ãģĹãģªãģķãģĦ": 228,
      "ãģªãģĦ": 229,
      "ĠãĥĪãĥłãģ«": 230,
      "ãĤĴæ": 231,
      "ä¸Ģ": 232,
      "è¡Įãģĳ": 233,
      "è¦ĭ": 234,
      "ãģ¾ãģĽãĤĵ": 235,
      "ĥæ°Ĺ": 236,
      "ħĥæ°Ĺ": 237,
      "ãģłãĤĪ": 238,
      "ãģ¡ãģ¯": 239,
      "ãģĭãģ«": 240,
      "ãģįãģ¦": 241,
      "ĠãģĵãĤĮ": 242,
      "äºĭ": 243,
      "§ä¸Īå¤«ãģ§ãģĻ": 244,
      "ä¼Ŀ": 245,
      "²ãĤĮ": 246,
      "åĭĿ": 247,
      "ģŀ": 248,
      "ĸ²ãĤĮ": 249,
      "ãģ©": 250,
      "ãĤĪãģĨ": 251,
      "Ġéł": 252,
      "Ġãģĵãģĵ": 253,
      "ĠãģĿãĤĮ": 254,
      "ĠãĤĤãģĨ": 255,
      "īĭä¼Ŀ": 256,
      "ĠãģķãģĤ": 257,
      "ĿĻãģĭãģ«": 258,
      "åı": 259,
      "åħ¥": 260,
      "è¨": 261,
      "Ġä¸": 262,
      "ĭķ": 263,
      "ãģ¹": 264,
      "ãĤĩ": 265,
      "ãĤı": 266,
      "Ġåħĥæ°Ĺ": 267,
      "Ġæ°Ĺ": 268,
      "Ġèª°": 269,
      "Ġç§ģãģ¯æ": 270,
      "äºº": 271,
      "¾ħãģ£ãģ¦": 272,
      "ĠèĲ½ãģ¡çĿĢãģĦãģ¦": 273,
      "è©": 274,
      "èµ": 275,
      "éģ": 276,
      "ãģ¸": 277,
      "ãģ£ãģ¨": 278,
      "Ġåĩº": 279,
      "Ġåĭķ": 280,
      "ãģĹãģ¾ãģĻ": 281,
      "ãģĻãĤĭ": 282,
      "ãģ£ãģ¦ãģĬ": 283,
      "Ġç§ģãģĮ": 284,
      "Ġè¡Į": 285,
      "ãĤĵãģ«": 286,
      "ãģ¡ãĤį": 287,
      "ãģıãĤĮ": 288,
      "ĠéĿĻãģĭãģ«": 289,
      "ãģĵãģ¨": 290,
      "ĠãĤĤãģ¡ãĤį": 291,
      "ãģĿãģĨ": 292,
      "©ãģĳãģ¦": 293,
      "ä½": 294,
      "æĪ": 295,
      "æŃ": 296,
      "èģŀ": 297,
      "é£": 298,
      "ĪĨ": 299,
      "Ĭ©ãģĳãģ¦": 300,
      "ãģĦãģªãģķãģĦ": 301,
      "ãģ£ãģ¡": 302,
      "Ġãģĺ": 303,
      "ĠåĭĿ": 304,
      "Ġåħ¥": 305,
      "ãģ£ãģ¦ãĤĭ": 306,
      "ãģ«æĿ¥": 307,
      "ãĤĴå": 308,
      "ãģ§ãģĻãģĭ": 309,
      "ãģĭãģªãģĦãģ§": 310,
      "ãģĽãģ¦": 311,
      "ãĤīãģ¯": 312,
      "ĠãģĤãĤĬ": 313,
      "Ġå¤§ä¸Īå¤«ãģ§ãģĻ": 314,
      "Ġãģ©ãģĨ": 315,
      "è¨Ģ": 316,
      "è©±": 317,
      "«ĭ": 318,
      "®¶": 319,
      "±ãģĦ": 320,
      "¿ĺ": 321,
      "ä»": 322,
      "åº": 323,
      "å¼": 324,
      "æĻ": 325,
      "çĶ": 326,
      "éĸ": 327,
      "ĠãģĦãģĦ": 328,
      "ľ¬": 329,
      "Ł¥": 330,
      "ãģ³": 331,
      "ĠåĲ": 332,
      "Ġå¾ħãģ£ãģ¦": 333,
      "ĠåĬ©ãģĳãģ¦": 334,
      "ĠæĤ": 335,
      "Ġæľ¬": 336,
      "ãĤĮãģ¦": 337,
      "ãģĮãģ¨": 338,
      "Ġé£": 339,
      "ĠãģĵãĤĵãģ«": 340,
      "ãĤĦãģ£ãģ¦ãģ¿": 341,
      "ĠãģĿãģĨ": 342,
      "ãģĪãģ¦": 343,
      "ãĤĴãģ¤ãģĳãģ¦": 344,
      "åĭĿãģ¡": 345,
      "ãģ©ãģĨ": 346,
      "èµ°": 347,
      "ĠãģĤãĤĬãģĮãģ¨": 348,
      "ĠãģĵãĤĵãģ«ãģ¡ãģ¯": 349,
      "¥½": 350,
      "²ãģĹãģĦ": 351,
      "·³": 352,
      "¹¸": 353,
      "½ķ": 354,
      "åĬ": 355,
      "çŁ¥": 356,
      "èħ": 357,
      "Ġï¼": 358,
      "Ĩ·": 359,
      "ĳå¼": 360,
      "Ĺ©": 361,
      "Łãģ¹": 362,
      "ãģĸ": 363,
      "ãĤ¤": 364,
      "ãĤ¯": 365,
      "ãĥ»": 366,
      "ãĥĥ": 367,
      "ãĥĪãĥł": 368,
      "Ġãģª": 369,
      "Ġãģ¾": 370,
      "Ġå®¶": 371,
      "Ġå¿ĺ": 372,
      "ãģĹãĤĩ": 373,
      "Ġçĸ²ãĤĮ": 374,
      "ãģ§ãģį": 375,
      "ãĤĪãģı": 376,
      "ãģķãģ¾": 377,
      "ãģ«ãģĦãĤĭ": 378,
      "Ġç§ģãģ®": 379,
      "Ġç§ģãĤĤ": 380,
      "Ġæīĭä¼Ŀ": 381,
      "ĠæĹ©": 382,
      "ãĤĭãĤĪ": 383,
      "ãģ¡ãĤĥ": 384,
      "Ġç§ģãģ¯è": 385,
      "Ġç§ģãģ¯å¤": 386,
      "è¡Įãģ£ãģŁ": 387,
      "Ġä»": 388,
      "Ġä½ķ": 389,
      "ãĤģãģ¦": 390,
      "ãģ¤ãģĦãģ¦": 391,
      "Ġåĥķãģ¯": 392,
      "Ġç§ģãģ¯å¹¸": 393,
      "ĠãĤĦãĤģãĤį": 394,
      "Ġéłĳå¼": 395,
      "Ġåħĥæ°Ĺåĩº": 396,
      "Ġèª°ãģĮ": 397,
      "Ġåĩºãģ¦": 398,
      "ĠãĤĤãģ¡ãĤįãĤĵ": 399,
      "ĪĨãģĭ": 400,
      "ĠåĭĿãģ£ãģŁ": 401,
      "Ġå¤§ä¸Īå¤«ãģ§ãģĻãĤĪ": 402,
      "éĸĵ": 403,
      "ĠãģĤãĤĬãģĮãģ¨ãģĨ": 404,
      "èħ¹": 405,
      "Ġéłĳå¼µ": 406,
      "¬ĳ": 407,
      "²ł": 408,
      "³£": 409,
      "³³": 410,
      "¸°": 411,
      "»è©±": 412,
      "¾ŀ": 413,
      "å¿": 414,
      "æĢ": 415,
      "æķ": 416,
      "æĸ": 417,
      "çĸ²ãĤĮ": 418,
      "ĠãĤĪãģı": 419,
      "īķ": 420,
      "ķäºĭ": 421,
      "ĺĺ": 422,
      "Ļį": 423,
      "Ľ®": 424,
      "Ľãģ³": 425,
      "Ľ»è©±": 426,
      "ãģĦãģ£": 427,
      "ãģĦãģ¾ãģĽãĤĵ": 428,
      "ãĥ³": 429,
      "ãģ£ãģĭ": 430,
      "ãģĹãģª": 431,
      "ãģĹãģ¾": 432,
      "ãģŁãģ¡ãģ¯": 433,
      "ãģªãĤī": 434,
      "ãģ£ãģ¦ãģĦãĤĭ": 435,
      "ãģ¾ãģĪ": 436,
      "ĠæŃ": 437,
      "Ġæ¥½": 438,
      "ĠãĥĪãĥłãĤĴæ": 439,
      "ãĤĴè¦ĭ": 440,
      "ãģıãģª": 441,
      "ãģĮãģ§ãģį": 442,
      "ãģĳãĤį": 443,
      "Ġå½¼ãĤīãģ¯": 444,
      "ãģĽãĤĪ": 445,
      "ãĤĬãģªãģķãģĦ": 446,
      "ãĤĬãģ¾ãģĻ": 447,
      "ãģ®åĭĿãģ¡": 448,
      "Ġãģĵãģ£ãģ¡": 449,
      "ãģ¿ãģ¾ãģĽãĤĵ": 450,
      "ĠãĤĦãģ£ãģ¦ãģ¿": 451,
      "è¦ļ": 452,
      "ä¼ļ": 453,
      "ĠãģĻãģĶ": 454,
      "ĠãģķãĤĪãģĨ": 455,
      "Ġèµ·ãģįãģªãģķãģĦ": 456,
      "Ġèµ·ãģįãģ¦": 457,
      "Ġä¿ºãģ¯": 458,
      "ĠéłŃ": 459,
      "ĠãģĿãĤĮãģ¯": 460,
      "åıĤ": 461,
      "Ġæ°ĹãĤĴãģ¤ãģĳãģ¦": 462,
      "äººãģ§ãģĻ": 463,
      "ãģ¸è¡Įãģĳ": 464,
      "ĠåĭķãģĭãģªãģĦãģ§": 465,
      "ä½¿": 466,
      "ä»ĺ": 467,
      "ĠæĤ²ãģĹãģĦ": 468,
      "Ġé£Ľãģ³": 469,
      "Ġå¿ĺãĤĮ": 470,
      "ĠæĹ©ãģı": 471,
      "²łãģĳ": 472,
      "ĺĺãĤĴãģ¤": 473,
      "ĠãģĻãģĶãģĦ": 474,
      "ĠãģķãĤĪãģĨãģªãĤī": 475,
      "¡ĺ": 476,
      "¤¼": 477,
      "¥³": 478,
      "¦å": 479,
      "³¥": 480,
      "¹Ĺ": 481,
      "»Ļ": 482,
      "åħ": 483,
      "åĺĺãĤĴãģ¤": 484,
      "å¥³": 485,
      "æĦ": 486,
      "æīĭ": 487,
      "æīĭä¼Ŀ": 488,
      "ç§ģ": 489,
      "ç¬ĳ": 490,
      "ç¤¼": 491,
      "èª": 492,
      "èª°": 493,
      "éĻį": 494,
      "éĽ»è©±": 495,
      "é¡ĺ": 496,
      "Ģ¥": 497,
      "Ħ¡": 498,
      "Īĩ": 499,
      "Įģ": 500,
      "įķ": 501,
      "Ń¦å": 502,
      "ãģ°": 503,
      "ãģĲ": 504,
      "ãģ±ãģĦ": 505,
      "ãģĦãĤĪ": 506,
      "ãģĦãģĳ": 507,
      "ãĥĹ": 508,
      "ãģ£ãģĴ": 509,
      "Ġãģ¡": 510,
      "ĠåĪĨãģĭ": 511,
      "Ġå¸°": 512,
      "ãģĹãģı": 513,
      "Ġç´": 514,
      "ĠçĶ": 515,
      "Ġç«ĭ": 516,
      "ĠçĽ®": 517,
      "ãģ§ãģĹãģŁ": 518,
      "ãģ«è¡Į": 519,
      "ãģ«åħ¥": 520,
      "ĠæĻ": 521,
      "ĠæĢ¥": 522,
      "Ġè³": 523,
      "ĠãĥĪãĥłãģĮ": 524,
      "ĠãĥĪãĥłãģ¨": 525,
      "ãĤĴä»ĺ": 526,
      "ãģ§ãģĻãĤĪ": 527,
      "ãģĭãģª": 528,
      "ãģĭãģ£ãģŁ": 529,
      "ãģĮé": 530,
      "ãģĮãģ£ãģ¦": 531,
      "ĠãĤ¹": 532,
      "ĠéĢ": 533,
      "Ġéģ": 534,
      "Ġé³¥": 535,
      "Ġé»Ļ": 536,
      "ãĤįãĤĪ": 537,
      "ãģĹãģ¦ãģıãģłãģķãģĦ": 538,
      "ãģĵãģĨ": 539,
      "ãģĵãģĵ": 540,
      "Ġå½¼å¥³": 541,
      "å¤§ä¸Īå¤«": 542,
      "ĠãģĬè¦ĭ": 543,
      "ĠãģĬèħ¹": 544,
      "ĠãģĬçĸ²ãĤĮ": 545,
      "ãģĬãģĨ": 546,
      "ãĤīãģĹãģĦ": 547,
      "ãĤīãģªãģĦ": 548,
      "è¡Įãģı": 549,
      "æĿ¥ãģŁ": 550,
      "æĿ¥ãģªãģķãģĦ": 551,
      "ãĤĦãģ£ãģŁ": 552,
      "ãģĳãģ¦ãģŃ": 553,
      "ãģĪãĤĭ": 554,
      "ĠãģĻãģ¿ãģ¾ãģĽãĤĵ": 555,
      "ĠãģĻãģ£ãģĴ": 556,
      "Ġãģ©ãģ£ãģĭ": 557,
      "ĠãĤĦãĤģãģªãģķãģĦ": 558,
      "ĠèĲ½ãģ¡çĿĢãģĳ": 559,
      "ãģĶãģĸ": 560,
      "Ġãģĵãģĵãģ«ãģĦãĤĭ": 561,
      "ĠãĤĤãģĨä¸Ģ": 562,
      "Ġä¸ĭ": 563,
      "Ġæ°ĹãĤĴä»ĺ": 564,
      "ãģ£ãģ¨ãģĹãģ¦": 565,
      "ãģ£ãģ¦ãģĬãģĦãģ§": 566,
      "Ġè¡Įãģı": 567,
      "æĪĲ": 568,
      "èģŀãģĦãģ¦": 569,
      "é£Łãģ¹": 570,
      "ĠãģĺãĤĥ": 571,
      "Ġãģĺãģ£ãģ¨ãģĹãģ¦": 572,
      "Ġåħ¥ãģ£ãģ¦": 573,
      "ãĤĴåĨ·": 574,
      "åº¦": 575,
      "æĻĤ": 576,
      "Ġæľ¬æ°Ĺ": 577,
      "ãģ©ãģĨãģŀ": 578,
      "èµ°ãģ£ãģŁ": 579,
      "ãĥ»ãĥ»": 580,
      "Ġå®¶ãģ«": 581,
      "ãģĹãĤĩãģĨ": 582,
      "Ġçĸ²ãĤĮãģŁ": 583,
      "Ġç§ģãģ¯å¤§ä¸Īå¤«ãģ§ãģĻ": 584,
      "Ġç§ģãģ¯å¹¸ãģĽ": 585,
      "Ġéłĳå¼µãĤĮ": 586,
      "æĢĿ": 587,
      "ãģĦãģ£ãģ±ãģĦ": 588,
      "ãģĹãģ¾ãģ£ãģŁ": 589,
      "ĠéłŃãĤĴåĨ·": 590,
      "²łãģĳãģŁ": 591,
      "ĠãģĻãģĶãģĦãģŀ": 592,
      "Ġç«ĭãģ¡": 593,
      "Ġé»Ļãģ£ãģ¦": 594,
      "Ġå½¼å¥³ãģ¯": 595,
      "ĠãģĬè¦ĭäºĭ": 596,
      "ĠãģĻãģ£ãģĴãĥ¼": 597,
      "Ġãģ©ãģ£ãģĭè¡Įãģĳ": 598,
      "Ġæ°ĹãĤĴä»ĺãģĳãģ¦ãģŃ": 599,
      "ĠéłŃãĤĴåĨ·ãĤĦ": 600,
      "¢º": 601,
      "£ãĥ³": 602,
      "¨ãĤĵãģ§": 603,
      "¨å¿": 604,
      "±æķ": 605,
      "±ç¤¼": 606,
      "´Ĺ": 607,
      "´ãģĹãģ¦": 608,
      "´ãĤīãģĹãģĦ": 609,
      "¸ãĥ": 610,
      "ºĢ": 611,
      "½ĵ": 612,
      "ä¹Ĺ": 613,
      "å¯": 614,
      "å¹": 615,
      "åŃ": 616,
      "å¾ħãģ£ãģ¦": 617,
      "å½ĵ": 618,
      "æīķ": 619,
      "ç¦": 620,
      "ç´": 621,
      "çµ": 622,
      "ç·": 623,
      "çĻ": 624,
      "ç«ĭ": 625,
      "è»": 626,
      "è¿": 627,
      "è·³": 628,
      "èŃ¦å": 629,
      "éĢ": 630,
      "Ģãĥ": 631,
      "ģ«": 632,
      "Ĥéĸĵ": 633,
      "ĥãģ¦": 634,
      "ĥãģĹãģªãģķãģĦ": 635,
      "ħĶ": 636,
      "Ĩãģ£": 637,
      "Īãģ«": 638,
      "Ĭ±": 639,
      "ĬãģĮ": 640,
      "ĮæĦ": 641,
      "ıãģ§ãģĻ": 642,
      "ĳĬ": 643,
      "ĳï¼": 644,
      "ĳãģĵãģĨ": 645,
      "Ĵĥãģ¦": 646,
      "ķãģ£": 647,
      "ĻãģĹãģĦ": 648,
      "ĻãĤĴæ": 649,
      "ĻãģĪãģ¦": 650,
      "ĽãģĦ": 651,
      "ĽæĪĲ": 652,
      "łæĻ": 653,
      "Ńãģ«åħ¥": 654,
      "ãģ»": 655,
      "ãģģ": 656,
      "ãģĺ": 657,
      "ãģļ": 658,
      "ãĤ¿": 659,
      "ãģĦãĤī": 660,
      "ãģĦãģ¾ãģĹãģŁ": 661,
      "ãģĦãģĹãģ¾ãģĻ": 662,
      "ãĥģ": 663,
      "ãĥī": 664,
      "ãģ£ãģĹ": 665,
      "Ġãģ¯": 666,
      "ĠãģĶ": 667,
      "Ġãģ¨ãĤĵãģ§": 668,
      "Ġå¾": 669,
      "Ġåı": 670,
      "ãģĹãĤĤ": 671,
      "ãģªãģ®": 672,
      "ãģªãĤĵãģł": 673,
      "Ġçģ«": 674,
      "ãģ£ãģ¦ãģ¾ãģĻ": 675,
      "ãģ£ãģ¦ãģĦãģŁ": 676,
      "Ġç§ģãģŁãģ¡ãģ¯": 677,
      "Ġç§ģãģ«è¡Į": 678,
      "ĠæĮģ": 679,
      "ĠæĴĥãģ¦": 680,
      "Ġèģŀ": 681,
      "Ġè·³": 682,
      "Ġè¾ŀ": 683,
      "ãĤĭãģ®": 684,
      "ãĤĭãĤĵãģł": 685,
      "ĠãĥĪãĥłãĤĴ": 686,
      "ãĤĴãģĹãģŁ": 687,
      "ãĤĴåĩº": 688,
      "ãĤĵãģ¦": 689,
      "ãģĭãģĽãģ¦": 690,
      "ãģıãĤĬ": 691,
      "ĠãĤı": 692,
      "ãģįãģª": 693,
      "ãģįãģ¾ãģĻ": 694,
      "ãģĹãģ¦ãģªãģķãģĦ": 695,
      "ãģĹãģ¦ãģ¿": 696,
      "ãģĽãĤį": 697,
      "ãĤĬãģıãģłãģķãģĦ": 698,
      "ãģĬãģĦãģ§": 699,
      "ãģ¿ãģªãģķãģĦ": 700,
      "ãĤģãģ¾ãģĻ": 701,
      "æĿ¯": 702,
      "æĿ¥ãģ¦": 703,
      "ĠãĤĤãģĹãĤĤ": 704,
      "ĠåĥķãĤīãģ¯": 705,
      "ĠèĲ½ãģ¡ãģ¤": 706,
      "ĠèĲ½ãģ¡ãģ¤ãģĦãģ¦": 707,
      "ãĤĵãģłãĤĪ": 708,
      "Ġå¤§ä¸Īå¤«": 709,
      "Ġèµ°": 710,
      "ãĤĥãģĦ": 711,
      "Ġèµ·ãģį": 712,
      "ĠãĥĪãĥłãģ¯æ³£": 713,
      "ĠãĥĪãĥłãģ«èŃ¦å": 714,
      "ĠãģĵãĤĮãĤĴ": 715,
      "åĭĿãģ£ãģŁ": 716,
      "Ġãģĵãģĵãģ§": 717,
      "Ġä¸Ńãģ«åħ¥": 718,
      "ãĤĩãģ£ãģ¨": 719,
      "ãĤıãĤĪ": 720,
      "éģĭ": 721,
      "Ġåĭķãģıãģª": 722,
      "ĠéĿĻãģĭãģ«ãģĹãģªãģķãģĦ": 723,
      "ĠãĤĤãģ¡ãĤįãĤĵãģłãĤĪ": 724,
      "èģŀãģįãģªãģķãģĦ": 725,
      "Ġåħ¥ãģ£ãģ¦ãģĬãģĦãģ§": 726,
      "ãģ«æĿ¥ãģªãģķãģĦ": 727,
      "ãģ«æĿ¥ãģĦãĤĪ": 728,
      "Ġãģ©ãģĨãģŀ": 729,
      "åº§": 730,
      "çĶ·": 731,
      "ĠåĲĳãģĵãģĨ": 732,
      "ĠåĬ©ãģĳãģ¦ãģıãĤĮ": 733,
      "Ġæľ¬å½ĵ": 734,
      "çŁ¥ãģ£ãģ¦ãĤĭ": 735,
      "ĠãģªãĤĵãģ¦": 736,
      "Ġãģ¾ãģŁ": 737,
      "ãģķãģ¾ãģ§ãģĹãģŁ": 738,
      "Ġæīĭä¼Ŀãģ£ãģ¦": 739,
      "ãģ¡ãĤĥãģ£ãģŁ": 740,
      "Ġä»ķäºĭ": 741,
      "Ġåĩºãģ¦è¡Įãģĳ": 742,
      "ĠãģĤãĤĬãģĮãģ¨ãģĨãģĶãģĸ": 743,
      "ĠãĤĪãģıãĤĦãģ£ãģŁ": 744,
      "ãģĹãģªãĤĪ": 745,
      "Ġæ¥½ãģĹ": 746,
      "åħĪãģ«": 747,
      "æīĭä¼Ŀãģ£ãģ¦": 748,
      "įķãģ¾ãģĪ": 749,
      "Ġãģ¡ãĤĩãģ£ãģ¨": 750,
      "Ġç´łæĻ": 751,
      "ĠçĶ¨å¿": 752,
      "ĠæĻĤéĸĵ": 753,
      "Ġè³ĽæĪĲ": 754,
      "Ġé³¥ãģ¯": 755,
      "ĠãģĬçĸ²ãĤĮãģķãģ¾ãģ§ãģĹãģŁ": 756,
      "è¡Įãģıãģŀ": 757,
      "ĠãĤĤãģĨä¸Ģåº¦": 758,
      "Ġä¸ĭãģĮãģ£ãģ¦": 759,
      "Ġè¡ĮãģıãĤĪ": 760,
      "ĠãģĺãĤĥãģĤ": 761,
      "Ġé»Ļãģ£ãģ¦ãģĦãģªãģķãģĦ": 762,
      "ĠéłŃãĤĴåĨ·ãĤĦãģĽ": 763,
      "£ãĥ³ãĥĹ": 764,
      "¸ãĥ£ãĥ³ãĥĹ": 765,
      "Ģãĥ¡": 766,
      "Ĩãģ£ãģıãĤĬ": 767,
      "ĬãģĮãĤĭãģ®": 768,
      "ķãģ£è": 769,
      "ãģĦãĤīãģ£ãģĹ": 770,
      "Ġãģ¨ãĤĵãģ§ãĤĤ": 771,
      "Ġç§ģãģ«è¡ĮãģĭãģĽãģ¦": 772,
      "ĠãĤĤãģĹãĤĤãģĹ": 773,
      "ĠãĥĪãĥłãģ«èŃ¦åĳĬ": 774,
      "Ġä¸Ńãģ«åħ¥ãĤĮãģ¦": 775,
      "Ġåħ¥ãģ£ãģ¦ãģĬãģĦãģ§ãĤĪ": 776,
      "ĠåĲĳãģĵãģĨãģ¸è¡Įãģĳ": 777,
      "ĠãģĤãĤĬãģĮãģ¨ãģĨãģĶãģĸãģĦãģ¾ãģĻ": 778,
      "Ġç´łæĻ´ãĤīãģĹãģĦ": 779,
      "ĠçĶ¨å¿ĥãģĹãģªãģķãģĦ": 780,
      "ĬãģĮãĤĭãģ®æīĭä¼Ŀãģ£ãģ¦": 781,
      "ãģĦãĤīãģ£ãģĹãĤĥãģĦ": 782,
      "¢ãģĹãģ¦": 783,
      "¤ï¼": 784,
      "¦ĭ": 785,
      "¦ãģĹãģŁ": 786,
      "©ãĤ¤": 787,
      "©ãĥĥ": 788,
      "ªå": 789,
      "ªãĥ": 790,
      "ªãģ§ãģĻ": 791,
      "«ĺ": 792,
      "«ãģł": 793,
      "®ĭ": 794,
      "¯Ĵ": 795,
      "°»": 796,
      "°ãģĭ": 797,
      "°ãģĹãģ¦": 798,
      "±ãģªãģĦ": 799,
      "±ãģĽãĤį": 800,
      "³ãģĹãģ¾ãģĻ": 801,
      "µģ": 802,
      "¶Ī": 803,
      "¶Ĭ": 804,
      "¶ļ": 805,
      "¶ĻãĤĴæ": 806,
      "·ãģ£ãģ¦": 807,
      "·ãģĹãģ¾ãģĻ": 808,
      "¸ãģĭ": 809,
      "¹¾": 810,
      "ºĸ": 811,
      "»ãĤĵãģł": 812,
      "¼ãĤĵãģ§": 813,
      "¼ķãģ£è": 814,
      "½Ķ": 815,
      "¾ãģ£ãģ¦ãģĬ": 816,
      "¿¡": 817,
      "¿ĻãģĹãģĦ": 818,
      "å±": 819,
      "å¾": 820,
      "åĤ": 821,
      "åĦ": 822,
      "åį": 823,
      "åĽ": 824,
      "å¾ħ": 825,
      "åĪĨ": 826,
      "åĪĨãģĭ": 827,
      "å°»": 828,
      "æ¬": 829,
      "æģ": 830,
      "æºĢ": 831,
      "çĽ": 832,
      "çĦ¡": 833,
      "ç¢º": 834,
      "èģ": 835,
      "èĩ": 836,
      "è¾ŀ": 837,
      "è²łãģĳãģŁ": 838,
      "éĿ": 839,
      "éł": 840,
      "éĿĻ": 841,
      "éĿĻãģĭãģ«": 842,
      "Ġä¸Ģ": 843,
      "ĠãģĦãĤīãģ£ãģĹãĤĥãģĦ": 844,
      "ĢĴ": 845,
      "ĥĮ": 846,
      "Ħª": 847,
      "ħĮ": 848,
      "ħæ°Ĺ": 849,
      "ĩį": 850,
      "Ĭãģ§ãģĻ": 851,
      "ĭĩ": 852,
      "ĭãĤı": 853,
      "ĭãģĳãĤį": 854,
      "Įĳ": 855,
      "ĮãģĪãĤĭ": 856,
      "į±ãģªãģĦ": 857,
      "ıãĤ": 858,
      "ıãģĻãĤĭ": 859,
      "Ĳãģ«": 860,
      "ĲãĤ¤": 861,
      "ĵãģ«": 862,
      "Ķãģ¨": 863,
      "Ķ¾ãģ£ãģ¦ãģĬ": 864,
      "ķĻãģĪãģ¦": 865,
      "ĸãģ£ãģ¦ãģĬ": 866,
      "Ĺħæ°Ĺ": 867,
      "Ļãģ§ãģĻ": 868,
      "ĻãģĮãģ§ãģį": 869,
      "ļĩ": 870,
      "Ľ¢": 871,
      "ĽãģĮ": 872,
      "ľł": 873,
      "ŀãĤ": 874,
      "Łãģ§ãģĻ": 875,
      "ŁãģĹãģŁ": 876,
      "Ńãĥ¼": 877,
      "ãģ¥": 878,
      "ãģİ": 879,
      "ãģľ": 880,
      "ãģĪå¤": 881,
      "ãĤ¹": 882,
      "ãĤŃãĥ¼": 883,
      "ãģĦãģł": 884,
      "ãģĦãĤĵãģł": 885,
      "ãģ¦ãģĬ": 886,
      "ãģ¦ãģªãģĦ": 887,
      "ï¼¤ï¼": 888,
      "ãĥĵ": 889,
      "ãĥĢãĥ¡": 890,
      "ãĥıãĤ": 891,
      "ĠãģĨ": 892,
      "Ġãģı": 893,
      "ĠãģĹ": 894,
      "ĠãģĭãĤı": 895,
      "Ġå¾ħ": 896,
      "ĠåĨ·": 897,
      "Ġå¯Ĵ": 898,
      "ĠåĦª": 899,
      "Ġåį±ãģªãģĦ": 900,
      "ãģ¯ç": 901,
      "ãģ¯ãģ©ãģĨ": 902,
      "ãģ¯è¦ļ": 903,
      "ãģ¯æĢĿ": 904,
      "ãģĹãĤģãģ¦": 905,
      "ãģŁãģŃ": 906,
      "ãģªãģŁ": 907,
      "ãģªãģĹãģı": 908,
      "ĠçĦ¡": 909,
      "Ġç¶ļ": 910,
      "ãģ§ãģŃ": 911,
      "ãģĻãģ¿ãģªãģķãģĦ": 912,
      "ãģ£ãģ¦ãģįãģªãģķãģĦ": 913,
      "ãģ£ãģ¦ãģįãģ¦": 914,
      "ãģ£ãģ¦è¨Ģ": 915,
      "ãģķãĤĵ": 916,
      "ãģ¾ãģĹãĤĩãģĨ": 917,
      "ãģ¾ãģŁãģŃ": 918,
      "ãģ«ãģª": 919,
      "ãģ«ãģĬ": 920,
      "ãģ«ãģĤ": 921,
      "ãģ«ãģ¤ãģĦãģ¦": 922,
      "ãģ«ä¼ļ": 923,
      "ãģ«ãģĹãģ¦ãģıãģłãģķãģĦ": 924,
      "ĠæĪ": 925,
      "Ġæīĭ": 926,
      "Ġæ¶Ī": 927,
      "Ġæºĸ": 928,
      "ĠæĶ¾ãģ£ãģ¦ãģĬ": 929,
      "ĠæķĻãģĪãģ¦": 930,
      "ĠãĥĪãĥ": 931,
      "ĠãĥŀãĤ": 932,
      "Ġè¾": 933,
      "Ġè²łãģĳãģŁ": 934,
      "Ġè¦ĭ": 935,
      "ãĤĭãģ»": 936,
      "ãģĨãĤĪ": 937,
      "ãĤĮãĤĪ": 938,
      "ãĤĮãĤĴ": 939,
      "ãĤĮãĤį": 940,
      "ĠãĥĪãĥłãĤĴå": 941,
      "ãĤĴå¤": 942,
      "ãĤĴè¦ļ": 943,
      "ãĤĵãģª": 944,
      "ãĤĵãģ§ãģĻ": 945,
      "ãģ¡ãģĿãģĨ": 946,
      "ãģ§ãģĻãģĮ": 947,
      "ãģĭãģĴ": 948,
      "ãģıãĤī": 949,
      "ãģıãģ³": 950,
      "ãģĮãģĦãĤĭ": 951,
      "ãģĮåĩº": 952,
      "ãģĮãģĦãģ£ãģ±ãģĦ": 953,
      "ĠãĤ¸ãĥ£ãĥ³ãĥĹ": 954,
      "ĠãĤĨãģ£ãģıãĤĬ": 955,
      "ãģĳãĤĭ": 956,
      "ãģ£ãģŁãĤĵãģł": 957,
      "Ġç§ģãģ¯æ°Ĺ": 958,
      "Ġç§ģãģ¯ãģĿãģĨ": 959,
      "Ġç§ģãģ¯ç´": 960,
      "Ġéĸ": 961,
      "ĠéħĶ": 962,
      "ĠéĽ¢": 963,
      "ãģįãģ«": 964,
      "ãģįãģĹãĤģãģ¦": 965,
      "ä¸ĭ": 966,
      "ä¸ĬãģĮãĤĭãģ®æīĭä¼Ŀãģ£ãģ¦": 967,
      "½¼ãģ«ä¼ļ": 968,
      "ãģ¨ãģªãģĹãģı": 969,
      "ãģĵãģĦ": 970,
      "Ġå½¼ãģĮ": 971,
      "Ġå½¼ãĤĴæ": 972,
      "ãĤĬãĤį": 973,
      "ãĤĬãģ¾ãģĹãģŁ": 974,
      "å¤±ç¤¼": 975,
      "ĠãĥĪãĥłãģ¯çŁ¥": 976,
      "ĠãĥĪãĥłãģ¯åĺĺãĤĴãģ¤": 977,
      "ãģ®ãģĵãģ¨": 978,
      "ĠãģĬãģĬ": 979,
      "ĠãģĬæ°Ĺ": 980,
      "ĠãģĬãĤĦ": 981,
      "ĠãģĬãģ¨ãģªãģĹãģı": 982,
      "ãģĬãģĶ": 983,
      "ãģĬé¡ĺ": 984,
      "ãģĬåħĪãģ«": 985,
      "è¡Įãģįãģ¾ãģĻ": 986,
      "Ġä¹¾": 987,
      "ãģ¿ãģ¦": 988,
      "ãģĦãģ¦ãģĦãĤĭ": 989,
      "ĠãĤĦãģ£ãģ¦": 990,
      "ĠãĤĦãģ£ãģŁ": 991,
      "ĠãĤĦãģĤ": 992,
      "Ġå½¼ãģ¯ç¬ĳ": 993,
      "Ġå½¼ãģ¯èª°": 994,
      "Ġå½¼ãģ¯éĻį": 995,
      "Ġå½¼ãģ¯å°»": 996,
      "Ġå½¼ãģ¯ï¼¤ï¼": 997,
      "æĿ¥ãģ¾ãģĹãģŁ": 998,
      "ĠãģĿãģĵ": 999,
      "ãĥ¼ãĥ": 1000,
      "ĠãģĤãĥ¼": 1001,
      "ĠãģĤãģ£ãģ¡": 1002,
      "ĠãģĤãģ°": 1003,
      "ĠãģĤãģıãģ³": 1004,
      "ĠåĥķãģłãĤĪ": 1005,
      "ãģŃãģ¦": 1006,
      "ãģĦãģĦãģ¾ãģĻ": 1007,
      "ĠãģĻãģĦãģ¾ãģĽãĤĵ": 1008,
      "ĠãģĻãģĲ": 1009,
      "Ġå¤±æķ": 1010,
      "Ġãģ©ãģªãģŁ": 1011,
      "ãģ¾ãģĽãĤĪ": 1012,
      "Ġç§ģãģ¯åħĥæ°Ĺ": 1013,
      "Ġç§ģãģ¯å½¼ãģ«ä¼ļ": 1014,
      "Ġä¿¡": 1015,
      "ãģ£ãģ¦ãģ¿ãĤĭ": 1016,
      "ĠãĤĦãĤģãģ¦ãģĬ": 1017,
      "Ġèµ·ç«ĭ": 1018,
      "ĠãĥĪãĥłãģ¯æīĭ": 1019,
      "ĠãĥĪãĥłãģ¯æ³³": 1020,
      "ĠãĥĪãĥłãģ¯æ¶ĻãĤĴæ": 1021,
      "ĠãĥĪãĥłãģ¯æĮĳ": 1022,
      "Ġä¿ºãģĮãģĦãĤĭ": 1023,
      "ãģĿãĤĮãĤĴ": 1024,
      "ĠãĥĪãĥłãģ«èģŀãģĦãģ¦": 1025,
      "ãĤĴæ´Ĺ": 1026,
      "ä¸Ģç·": 1027,
      "ĠãģĵãĤĮä½¿": 1028,
      "ĠãĤĤãģĨæŃ": 1029,
      "ĠãĤĤãģĨæºĢ": 1030,
      "ĠãģķãģĤè¡Įãģ£ãģŁ": 1031,
      "åħ¥ãģ£ãģ¦": 1032,
      "åħ¥ãĤĬãģıãģłãģķãģĦ": 1033,
      "Ġä¸Ĭ": 1034,
      "Ġåħĥæ°ĹãĤĴåĩº": 1035,
      "Ġåħĥæ°Ĺãģ§ãģŃ": 1036,
      "Ġç§ģãģ¯æ³³": 1037,
      "Ġç§ģãģ¯æĢĴ": 1038,
      "äººãģł": 1039,
      "èµ·": 1040,
      "éģħ": 1041,
      "ãģ¸æĿ¥ãģªãģķãģĦ": 1042,
      "ĠåĩºãĤį": 1043,
      "Ġç§ģãģĮæīķ": 1044,
      "Ġç§ģãģĮè¡Įãģįãģ¾ãģĻ": 1045,
      "ãĤĵãģ«ãģĹãģ¦": 1046,
      "ĠéĿĻãģĭãģ«ãģĹãģ¦ãģªãģķãģĦ": 1047,
      "ãģĵãģ¨ãģł": 1048,
      "ãģĵãģ¨ãģĮãģ§ãģį": 1049,
      "æĪ»": 1050,
      "æŃ³": 1051,
      "é£Ľ": 1052,
      "ãģ«æĿ¥ãģ¦": 1053,
      "Ġãģ©ãģĨãģĹãģ¦": 1054,
      "Ġãģ©ãģĨãĤĤ": 1055,
      "è¨Ģãģ£ãģ¦ãĤĭ": 1056,
      "è©±ãģĹãģŁ": 1057,
      "ä»ķäºĭ": 1058,
      "çĶ³ãģĹãģ¾ãģĻ": 1059,
      "ĠãģĦãģĦäººãģ§ãģĻ": 1060,
      "ĠãģĦãģĦåŃ": 1061,
      "ĠãģĦãģĦãģĭãģĴ": 1062,
      "ĠåĲĮæĦ": 1063,
      "ĠåĲĽãģĮ": 1064,
      "Ġå¾ħãģ£ãģ¦ãģıãĤĮ": 1065,
      "Ġå¾ħãģ£ãģ¦ãĤįãĤĪ": 1066,
      "Ġé£Łãģ¹": 1067,
      "ãĤĦãģ£ãģ¦ãģ¿ãģ¦": 1068,
      "ãĤĦãģ£ãģ¦ãģ¿ãģŁ": 1069,
      "ãĤĦãģ£ãģ¦ãģ¿ãģªãģķãģĦ": 1070,
      "èµ°ãĤĭ": 1071,
      "åĬł": 1072,
      "Ġï¼ĳï¼": 1073,
      "ãĤ¯ãĤ¹": 1074,
      "ãĥ»ãĢĤ": 1075,
      "ãĥĥãĥģ": 1076,
      "ĠãģªãĤĭãģ»": 1077,
      "Ġç§ģãģ®è": 1078,
      "Ġç§ģãĤĤãģĿãģĨ": 1079,
      "Ġæīĭä¼ĿãģĬãģĨ": 1080,
      "Ġç§ģãģ¯èĥĮ": 1081,
      "ãĤģãģ¦ãģĦãģ¾ãģĻ": 1082,
      "Ġåĥķãģ¯ãģĵãģĵ": 1083,
      "Ġç§ģãģ¯å¹¸ç¦": 1084,
      "Ġåħĥæ°ĹåĩºãģĹãģ¦": 1085,
      "Ġåħĥæ°ĹåĩºãģĽãĤĪ": 1086,
      "Ġåħĥæ°ĹåĩºãģĹãģªãĤĪ": 1087,
      "Ġåĩºãģ¦ãģĦãģĳ": 1088,
      "ĠåĭĿãģ£ãģŁãģŀ": 1089,
      "èħ¹ãģ§ãģĻ": 1090,
      "Ġéłĳå¼µãģ£ãģ¦ãģ¿ãĤĭ": 1091,
      "æĸ°": 1092,
      "æĸĻãģ§ãģĻ": 1093,
      "ãģŁãģ¡ãģ¯çŁ¥ãģ£ãģ¦ãĤĭ": 1094,
      "ãĤĴè¦ĭãĤį": 1095,
      "ãĤĴè¦ĭãģ¤": 1096,
      "ãģ®åĭĿãģ¡ãģł": 1097,
      "ãģ®åĭĿãģ¡ãĥ¼": 1098,
      "ĠãĤĦãģ£ãģ¦ãģ¿ãĤĭ": 1099,
      "ĠãĤĦãģ£ãģ¦ãģ¿ãĤĪãģĨ": 1100,
      "ä¼ļãģĬãģĨ": 1101,
      "Ġèµ·ãģįãģ¦ãĤĭãĤĪ": 1102,
      "åıĤãģĹãģŁ": 1103,
      "Ġé£Ľãģ³éĻį": 1104,
      "Ġé£Ľãģ³è·³": 1105,
      "Ġå¿ĺãĤĮãģŁ": 1106,
      "ç§ģãģ®": 1107,
      "ç¬ĳãģ£ãģ¦": 1108,
      "èªį": 1109,
      "èªŃ": 1110,
      "éĽ»è©±ãģĹãģ¦": 1111,
      "é¡ĺãģĦãģ¾ãģĻ": 1112,
      "Ġå¸°ãĤĬãģªãģķãģĦ": 1113,
      "ĠçĽ®ãģ¯è¦ļ": 1114,
      "ĠçĽ®ãĤĴè¦ļ": 1115,
      "ĠæĢ¥ãģĴ": 1116,
      "ĠãĥĪãĥłãģ¨ãģĦãģĦãģ¾ãģĻ": 1117,
      "ĠãĥĪãĥłãģ¨çĶ³ãģĹãģ¾ãģĻ": 1118,
      "ãģĮé«ĺ": 1119,
      "ãģĮéĩį": 1120,
      "ĠãĤ¹ãĥ": 1121,
      "ĠãĤ¹ãĤŃãĥ¼": 1122,
      "ĠéĢ²": 1123,
      "Ġéģĵãģ«": 1124,
      "ĠãģĬèħ¹ãģĦãģ£ãģ±ãģĦ": 1125,
      "ĠãģĬèħ¹ãģĮãģĦãģ£ãģ±ãģĦ": 1126,
      "ãĤīãģªãģĦãĤĪ": 1127,
      "ĠèĲ½ãģ¡çĿĢãģĳãĤĪ": 1128,
      "Ġãģĵãģĵãģ«ãģĦãĤĭãĤĪ": 1129,
      "Ġãģĵãģĵãģ«ãģĦãĤĭãĤıãĤĪ": 1130,
      "èģŀãģĦãģ¦ãģ¿ãģ¦": 1131,
      "é£Łãģ¹ãģ¾ãģĻ": 1132,
      "Ġãģĺãģ£ãģ¨ãģĹãģ¦ãģ¦": 1133,
      "æĻĤåį": 1134,
      "ãĥ»ãĥ»ãĥ»ãĢĤ": 1135,
      "Ġçĸ²ãĤĮãģŁãģª": 1136,
      "Ġç§ģãģ¯å¹¸ãģĽãģł": 1137,
      "Ġç§ģãģ¯å¹¸ãģĽãģ§ãģĻ": 1138,
      "Ġç«ĭãģ¡ãģªãģķãģĦ": 1139,
      "å¯Ŀ": 1140,
      "å¹´": 1141,
      "çĻº": 1142,
      "è¿·ãģ£ãģ¦": 1143,
      "Ĭ±ãģįãģĹãĤģãģ¦": 1144,
      "Ġãģ¯ãģĦ": 1145,
      "ĠãģĶãģ¡ãģĿãģĨ": 1146,
      "Ġå¾Į": 1147,
      "Ġçģ«äºĭ": 1148,
      "ĠæĮģãģ£ãģ¦": 1149,
      "Ġè·³ãģ¹": 1150,
      "Ġè¾ŀèģ": 1151,
      "ãģĹãģ¦ãģ¿ãĤĭ": 1152,
      "ĠèĲ½ãģ¡ãģ¤ãģįãģª": 1153,
      "Ġèµ°ãĤĮ": 1154,
      "Ġèµ·ãģįãĤį": 1155,
      "ĠãģĵãĤĮãĤĴèªŃ": 1156,
      "éģĭè»": 1157,
      "åº§ãģ£ãģ¦": 1158,
      "çĶ·ãģłãĤĪ": 1159,
      "Ġãģ¾ãģŁä¼ļãģĬãģĨ": 1160,
      "Ġæ¥½ãģĹãĤĵãģ§": 1161,
      "įķãģ¾ãģĪãĤį": 1162,
      "Ġè³ĽæĪĲãģ§ãģĻ": 1163,
      "ĠãĤĤãģĨä¸Ģåº¦ãģĬé¡ĺ": 1164,
      "©ãĥĥãĤ¯ãĤ¹": 1165,
      "ªãĥ©ãĥĥãĤ¯ãĤ¹": 1166,
      "°ãģĭãģĦãĤĵãģł": 1167,
      "µģãģĹãģŁ": 1168,
      "¼ķãģ£è¾": 1169,
      "åĤĻãģĮãģ§ãģį": 1170,
      "åĦĢ": 1171,
      "åĪĨãģ§ãģĻ": 1172,
      "çĽ´ãģĹãģ¦": 1173,
      "éĿ¢": 1174,
      "éłŃ": 1175,
      "éĿĻãģ«": 1176,
      "ħĮãģ¦ãģªãģĦ": 1177,
      "ĸãģ£ãģ¦ãģĬãģĦãģ¦": 1178,
      "Ĺħæ°Ĺãģ§ãģĻ": 1179,
      "ãģĪå¤±ãģĽãĤį": 1180,
      "ãĥıãĤ°ãģĹãģ¦": 1181,
      "ĠãģĭãĤıãģĦãģĦ": 1182,
      "ĠåĨ·éĿĻãģ«": 1183,
      "ãģ¯æĢĿãģĦãģ¾ãģĽãĤĵ": 1184,
      "Ġæ¶ĪãģĪå¤±ãģĽãĤį": 1185,
      "ĠæºĸåĤĻãģĮãģ§ãģį": 1186,
      "ĠãĥĪãĥ©ãĤ¤": 1187,
      "ĠãĥŀãĤ¸ãģĭ": 1188,
      "ĠãĤ¸ãĥ£ãĥ³ãĥĹãģĹãģ¦": 1189,
      "Ġç§ģãģ¯ç´°ãģĭãģĦãĤĵãģł": 1190,
      "ĠéħĶãģ£ãģŁ": 1191,
      "ĠãģĬãģĬãģįãģ«": 1192,
      "ĠãģĬæ°ĹãĤĴãģ¤ãģĳãģ¦": 1193,
      "ĠãģĬãĤĦãģĻãģ¿ãģªãģķãģĦ": 1194,
      "ĠãģĬãģ¨ãģªãģĹãģıãģĹãģªãģķãģĦ": 1195,
      "ãģĬãģĶãĤĬ": 1196,
      "Ġä¹¾æĿ¯": 1197,
      "Ġå½¼ãģ¯éĻįåıĤãģĹãģŁ": 1198,
      "Ġå½¼ãģ¯å°»ãģĮéĩį": 1199,
      "Ġå½¼ãģ¯ï¼¤ï¼ªãģ§ãģĻ": 1200,
      "ĠãģĤãģ£ãģ¡ãģ¸è¡Įãģĳ": 1201,
      "ĠãģĤãģ°ãĤĪ": 1202,
      "Ġç§ģãģ¯åħĥæ°Ĺãģ§ãģĻ": 1203,
      "Ġç§ģãģ¯å½¼ãģ«ä¼ļãģ£ãģŁ": 1204,
      "ĠãĤĦãĤģãģ¦ãģĬãģĳ": 1205,
      "ĠãĥĪãĥłãģ¯æ¶ĻãĤĴæµģãģĹãģŁ": 1206,
      "ĠãĥĪãĥłãģ¯æĮĳæĪ": 1207,
      "Ġä¿ºãģĮãģĦãĤĭãģķ": 1208,
      "ãĤĴæ´ĹãģĦãģªãģķãģĦ": 1209,
      "ä¸Ģç·Ĵ": 1210,
      "ĠãģĵãĤĮä½¿ãģ£ãģ¦": 1211,
      "ĠãĤĤãģĨæºĢèħ¹ãģ§ãģĻ": 1212,
      "Ġåħĥæ°ĹãĤĴåĩºãģĽãĤĪ": 1213,
      "ĠãģĦãģĦåŃĲãģ«": 1214,
      "ĠãģĦãģĦãģĭãģĴãĤĵãģ«ãģĹãģ¦": 1215,
      "ĠãģªãĤĭãģ»ãģ©": 1216,
      "Ġæīĭä¼ĿãģĬãģĨãģĭ": 1217,
      "Ġç§ģãģ¯èĥĮãģĮé«ĺ": 1218,
      "Ġåĥķãģ¯ãģĵãģĵãģ«ãģĦãĤĭ": 1219,
      "Ġç§ģãģ¯å¹¸ç¦ıãģ§ãģĻ": 1220,
      "Ġé£Ľãģ³éĻįãĤĬãĤį": 1221,
      "Ġé£Ľãģ³è·³ãģŃãģ¦": 1222,
      "ĠçĽ®ãģ¯è¦ļãĤģãģ¦ãģĦãģ¾ãģĻ": 1223,
      "ĠçĽ®ãĤĴè¦ļãģ¾ãģĽãĤĪ": 1224,
      "Ġéģĵãģ«è¿·ãģ£ãģ¦": 1225,
      "ĠãģĬèħ¹ãģĦãģ£ãģ±ãģĦãģł": 1226,
      "ĠãģĬèħ¹ãģĮãģĦãģ£ãģ±ãģĦãģ§ãģĻ": 1227,
      "æĻĤåįĬãģ§ãģĻ": 1228,
      "ĠãģĶãģ¡ãģĿãģĨãģķãģ¾": 1229,
      "Ġè¾ŀèģ·ãģĹãģ¾ãģĻ": 1230,
      "ĠãĤĤãģĨä¸Ģåº¦ãģĬé¡ĺãģĦãģĹãģ¾ãģĻ": 1231,
      "ĠæºĸåĤĻãģĮãģ§ãģįãģ¾ãģĹãģŁ": 1232,
      "Ġå½¼ãģ¯å°»ãģĮéĩįãģĦ": 1233,
      "Ġç§ģãģ¯èĥĮãģĮé«ĺãģĦ": 1234,
      "¡Ī": 1235,
      "¡ãģ¯": 1236,
      "¡ãĤĴ": 1237,
      "¡åħ": 1238,
      "¡Ķãģ¨": 1239,
      "¢ãģĦ": 1240,
      "¢ãģ¾": 1241,
      "¢ãģł": 1242,
      "¢ãģĹãģŁ": 1243,
      "¢ãĤģ": 1244,
      "¢ãĥ¼": 1245,
      "¢ãĤģãģ¦": 1246,
      "£Ĭ": 1247,
      "£ãģł": 1248,
      "£ãģĹãģĦ": 1249,
      "£ãĤĮãģ¦": 1250,
      "£çµ": 1251,
      "¤ãģĦãģ¦": 1252,
      "¥ŀ": 1253,
      "¥ãģĦ": 1254,
      "¥ãģĦãģ§": 1255,
      "¥ãģªãģĦãģ§": 1256,
      "¥ãģļ": 1257,
      "¦¬": 1258,
      "¦Ļ": 1259,
      "¦ãģ«": 1260,
      "¦ãĤĭ": 1261,
      "¦ãĤģ": 1262,
      "¦ãģĻãĤĭ": 1263,
      "¦ãģĹãģ¦ãģ¿ãĤĭ": 1264,
      "§£": 1265,
      "§ä": 1266,
      "§å": 1267,
      "§ĺ": 1268,
      "§ãģıãģłãģķãģĦ": 1269,
      "§äºº": 1270,
      "§ãĤ¯": 1271,
      "§ãģ®ãģĵãģ¨": 1272,
      "§¦ãĤĭ": 1273,
      "¨±": 1274,
      "¨ãģ¾": 1275,
      "¨ãĤĬ": 1276,
      "¨ãģ¿": 1277,
      "¨ãģĻãĤĭ": 1278,
      "¨ãģĹãģ¦ãģıãģłãģķãģĦ": 1279,
      "©º": 1280,
      "©ļ": 1281,
      "©Ł": 1282,
      "©ãĤĴ": 1283,
      "©ãģĦãģŁ": 1284,
      "©åı": 1285,
      "©ãĤģãģ¦": 1286,
      "©ãģĳãĤĭ": 1287,
      "©¦ãģĹãģ¦ãģ¿ãĤĭ": 1288,
      "ªŃ": 1289,
      "ªãģ£ãģ¦ãĤĭ": 1290,
      "ªçĶ": 1291,
      "ªåĬ": 1292,
      "ªãģ£ãģ¦ãģĦãĤĭ": 1293,
      "ªãģĭãģ£ãģŁ": 1294,
      "ªãĤīãģªãģĦ": 1295,
      "ªãĥĥãĥģ": 1296,
      "«Į": 1297,
      "«ãģ£": 1298,
      "«ãģª": 1299,
      "«ãĤĴ": 1300,
      "«ãĥĥ": 1301,
      "«¦ãĤģ": 1302,
      "¬Ŀ": 1303,
      "¬ãģª": 1304,
      "¬å¹": 1305,
      "¬ãĥĵ": 1306,
      "¬¡ãģ¯": 1307,
      "®´": 1308,
      "®Į": 1309,
      "®ĺ": 1310,
      "¯ãĤ": 1311,
      "¯ãģ£ãģŁ": 1312,
      "¯æ°Ĺ": 1313,
      "¯æĦ": 1314,
      "¯ãĤ¿": 1315,
      "°ĳ": 1316,
      "°åıĤ": 1317,
      "±ãģĹ": 1318,
      "±ãģ®": 1319,
      "²¾": 1320,
      "²æ": 1321,
      "²ãĤĵãģł": 1322,
      "²ãģĿãģĨ": 1323,
      "²éĸĵ": 1324,
      "²ãģĮãģ£ãģ¦": 1325,
      "²§ä": 1326,
      "³´": 1327,
      "³æ": 1328,
      "³ãģł": 1329,
      "³æ°Ĺ": 1330,
      "³ãģĦãģĦ": 1331,
      "³ªå": 1332,
      "³éĿ¢": 1333,
      "´ãģĪãģ¦": 1334,
      "µãģª": 1335,
      "µãĤĴ": 1336,
      "µãģ£ãģŁ": 1337,
      "µãģĸ": 1338,
      "µãĤ¤": 1339,
      "¶ħ": 1340,
      "¶ãģ§ãģĻ": 1341,
      "··": 1342,
      "·±ãģĦ": 1343,
      "·ãģ«ãģª": 1344,
      "·¦ãģ«": 1345,
      "¸ħ": 1346,
      "¸Ľ": 1347,
      "¸ãĤĵãģ§": 1348,
      "¸ãģĦãģ¾ãģĻ": 1349,
      "¸ãģįãģª": 1350,
      "¸©ãĤģãģ¦": 1351,
      "¸³éĿ¢": 1352,
      "¹¿": 1353,
      "¹ıãģ§ãģĻ": 1354,
      "¹³æ°Ĺ": 1355,
      "ºĨ": 1356,
      "ºĬ": 1357,
      "º«ãģł": 1358,
      "»ĳ": 1359,
      "»ãģª": 1360,
      "»ãģ«": 1361,
      "»ãģ£ãģŁ": 1362,
      "»ãĤī": 1363,
      "»ãģĽãģ¦": 1364,
      "»ãģ£ãģ¦ãģĬãģĦãģ§": 1365,
      "¼ı": 1366,
      "¼ãģĻ": 1367,
      "¼ãģ¿": 1368,
      "½ãģł": 1369,
      "¾ãģ§ãģĻ": 1370,
      "¾¨ãģ¾": 1371,
      "¿ĳ": 1372,
      "¿ãĥ": 1373,
      "ä¿¡": 1374,
      "åĨ": 1375,
      "åİ": 1376,
      "åĵ": 1377,
      "åľ": 1378,
      "åĭķ": 1379,
      "å®¶": 1380,
      "å¿ĺ": 1381,
      "å¥½": 1382,
      "å¸°": 1383,
      "å£Ĭ": 1384,
      "å©ļ": 1385,
      "å«Į": 1386,
      "å¸³éĿ¢": 1387,
      "æĤ": 1388,
      "æĽ": 1389,
      "æ³£": 1390,
      "æ³³": 1391,
      "æĮģ": 1392,
      "æĬ±": 1393,
      "æ½Ķ": 1394,
      "æħĮãģ¦ãģªãģĦ": 1395,
      "æ¡Ī": 1396,
      "æ§ĺ": 1397,
      "æ©Ł": 1398,
      "æ·±ãģĦ": 1399,
      "æ¸Ľ": 1400,
      "æ»ĳ": 1401,
      "çħ": 1402,
      "çī": 1403,
      "çĭ": 1404,
      "çĲ": 1405,
      "çĴ": 1406,
      "çķ": 1407,
      "çĸ": 1408,
      "çŃ": 1409,
      "çĽ®": 1410,
      "çľł": 1411,
      "çĹħæ°Ĺãģ§ãģĻ": 1412,
      "ç¾¨ãģ¾": 1413,
      "èĢ": 1414,
      "èĭ": 1415,
      "èĮ": 1416,
      "èĲ½": 1417,
      "èĲ½ãģ¡": 1418,
      "è¶Ĭ": 1419,
      "è§£": 1420,
      "èº«ãģł": 1421,
      "éħĶ": 1422,
      "é³´": 1423,
      "é¹¿": 1424,
      "Ġ2": 1425,
      "ĠãĢ": 1426,
      "ĠãģĦãĤĭ": 1427,
      "ĠãĤĪãģĨ": 1428,
      "ĠãģĦãģ£": 1429,
      "ĢãĤĭ": 1430,
      "Ģãģ§ãģĻãĤĪ": 1431,
      "Ģå±": 1432,
      "Ģãģĵãģ¨ãģĮãģ§ãģį": 1433,
      "ģãģļ": 1434,
      "ģãģªãģ®": 1435,
      "Ĥäº": 1436,
      "Ĥãģ£ãģ¦ãģĦãģŁ": 1437,
      "ĤãĤĬãģ¾ãģĹãģŁ": 1438,
      "ĥ¨": 1439,
      "ĥãģĴ": 1440,
      "ĥãģĪãģ¦": 1441,
      "ĥãĥĹ": 1442,
      "ĥãģĪãĤĭ": 1443,
      "Ħı": 1444,
      "ĦæĿ": 1445,
      "ħãģĻ": 1446,
      "ħãĥ¼": 1447,
      "ħ¬å¹": 1448,
      "Ĩãĥ": 1449,
      "ĨãģĻãĤĭ": 1450,
      "Ĩ±ãģĦ": 1451,
      "ĨãģķãĤĵ": 1452,
      "ĩĳ": 1453,
      "ĩł": 1454,
      "ĩãĥ": 1455,
      "ĩãģª": 1456,
      "ĩãĥ¼": 1457,
      "ĩä»ĺ": 1458,
      "ĩçĦ¡": 1459,
      "ĩªçĶ": 1460,
      "ĩĥãģĪãĤĭ": 1461,
      "ĪãģĹ": 1462,
      "Ī©åı": 1463,
      "īį": 1464,
      "īãĤı": 1465,
      "īĩä»ĺ": 1466,
      "ĬãģĻ": 1467,
      "ĬãģĴ": 1468,
      "Ĭé¡ĺãģĦãģ¾ãģĻ": 1469,
      "Ĭ¼ãģĻ": 1470,
      "ĭį": 1471,
      "ĭãģ§ãģĻ": 1472,
      "ĭãģĳãģ¦": 1473,
      "ĮãģĮ": 1474,
      "ĮãģĦãģ¾ãģĻ": 1475,
      "Į¯ãģ£ãģŁ": 1476,
      "įãģªãģķãģĦ": 1477,
      "įå¯": 1478,
      "įµãĤĴ": 1479,
      "İãĤ": 1480,
      "İ¢ãģĹãģ¦": 1481,
      "ıãģ«": 1482,
      "ıãĥ¼": 1483,
      "ıãģĽãĤį": 1484,
      "ĲãĤ": 1485,
      "ĲãģĦ": 1486,
      "ĲåĬ": 1487,
      "ĲĮæĦ": 1488,
      "Ĳãĥĥãĥģ": 1489,
      "Ĳ¸ãģĦãģ¾ãģĻ": 1490,
      "Ĳå©ļ": 1491,
      "ĳãģĦ": 1492,
      "ĳãģ£ãģŁ": 1493,
      "ĳ¼ãĤĵãģ§": 1494,
      "ĳãĥ¼ãĥ": 1495,
      "ĳ¨ãĤĬ": 1496,
      "ĵãģĪ": 1497,
      "ĵãĤĴå¤": 1498,
      "Ķï¼": 1499,
      "Ķãĥ¼": 1500,
      "ĶãģĪ": 1501,
      "ķãĤ": 1502,
      "ķãģĨ": 1503,
      "ķãģ£ãģ¦ãģĦãĤĭ": 1504,
      "ķıãģ«": 1505,
      "ĸĻ": 1506,
      "ĸãģĹ": 1507,
      "ĸãģ«": 1508,
      "ĸãģł": 1509,
      "ĸé£": 1510,
      "ĸãģ£ãģ¦ãģĦãĤĭ": 1511,
      "ĸĩçĦ¡": 1512,
      "Ĺãģł": 1513,
      "ĹãģĹãģŁ": 1514,
      "ĹãģŃ": 1515,
      "ĹĽãģĦ": 1516,
      "ĺãĤĴ": 1517,
      "ĺŁãģ§ãģĻ": 1518,
      "ĺåľ": 1519,
      "Ļãĥĥ": 1520,
      "ļł": 1521,
      "ļãĤĬãģ¾ãģĻ": 1522,
      "ļĨãģķãĤĵ": 1523,
      "ļĳãģĦ": 1524,
      "ĽãģĹãģ¦": 1525,
      "Ľ³æ": 1526,
      "Ľ¸ãģįãģª": 1527,
      "ĽæĬ±": 1528,
      "ľŁ": 1529,
      "ľãģ": 1530,
      "ľãģ£ãģŁ": 1531,
      "Ŀ¥ãģªãģĦãģ§": 1532,
      "ŀãĤĦãģ£ãģ¦ãģ¿ãģ¦": 1533,
      "Łãģł": 1534,
      "ŁãģĮ": 1535,
      "ŁãģĻãĤĭ": 1536,
      "łãģĦ": 1537,
      "łãģªãĤĵãģł": 1538,
      "ŃãģĦãĤĪ": 1539,
      "Ń»ãĤĵãģł": 1540,
      "Ń¢ãĤģ": 1541,
      "ãģ¶": 1542,
      "ãģī": 1543,
      "ãģµãģ£ãģŁ": 1544,
      "ãģĩãĥ¼": 1545,
      "ãĢį": 1546,
      "ãĤº": 1547,
      "ãĤ¸ãĥ£ãĥ³ãĥĹ": 1548,
      "ãĤĨãģ£ãģıãĤĬ": 1549,
      "ãĤ¢ãĥ¼": 1550,
      "ãĤ³ãģĦãģĦ": 1551,
      "ãĤµãĤ¤": 1552,
      "ãĤĢãģĵãģ¨ãģĮãģ§ãģį": 1553,
      "ãģĦãģª": 1554,
      "ãģĦãģ£ãģ¦": 1555,
      "ãģĦãģĨ": 1556,
      "ãģĦãģĭ": 1557,
      "ãģĦãĤį": 1558,
      "ãģĦãģĬ": 1559,
      "ãģĦãģªãģĦ": 1560,
      "ãģĦãĤıãĤĪ": 1561,
      "ãģĦãģ¾ãģĹãĤĩãģĨ": 1562,
      "ãģĦæ·±ãģĦ": 1563,
      "ãģ¦ãĤĭ": 1564,
      "ãģ¦ãģ¾ãģĻ": 1565,
      "ãģ¦ãģĦãĤĭ": 1566,
      "ãģ¦ãĤĤ": 1567,
      "ãģ¦ãģĦãģŁ": 1568,
      "ãģ¦ãģıãĤĮ": 1569,
      "ãģ¦ãģĵãģ¨ãģł": 1570,
      "ï¼ĳ": 1571,
      "ï¼ĳï¼": 1572,
      "ï¼Ķï¼": 1573,
      "ãĥª": 1574,
      "ãĥĪ": 1575,
      "ãĥĲãĤ¤": 1576,
      "ãĥªãĥ©ãĥĥãĤ¯ãĤ¹": 1577,
      "ãĥ«ãĤĴ": 1578,
      "ãĥĨãĥ": 1579,
      "ãĥĩãĥ": 1580,
      "ãĥĲãĤ": 1581,
      "ãģ£ãģĻ": 1582,
      "ãģ£ãģį": 1583,
      "ãģ£ãģ»": 1584,
      "Ġãģ¤ãģĦãģ¦": 1585,
      "Ġãģ«ãģ£": 1586,
      "Ġãģµãģĸ": 1587,
      "Ġãģ»ãĤī": 1588,
      "ĠãģİãĤ": 1589,
      "Ġãģľãģ": 1590,
      "ĠåĺĺãĤĴãģ¤": 1591,
      "ĠåĪĩ": 1592,
      "Ġå¿ĻãģĹãģĦ": 1593,
      "Ġåĭĩ": 1594,
      "Ġå¼ķãģ£è¾": 1595,
      "Ġå¦Ļ": 1596,
      "Ġå®Į": 1597,
      "Ġå°ĳ": 1598,
      "Ġå·¦ãģ«": 1599,
      "Ġå¹³æ°Ĺ": 1600,
      "ĠåºĬ": 1601,
      "ĠåĪ©åı": 1602,
      "Ġåīį": 1603,
      "Ġåĳ¨ãĤĬ": 1604,
      "ĠåĽ³æ": 1605,
      "ãģ¯ãģ¿": 1606,
      "ãģ¯ãģĤ": 1607,
      "ãģ¯åŃ": 1608,
      "ãģ¯ãģļ": 1609,
      "ãģ¯å¿ĺ": 1610,
      "ãģ¯æ»ĳ": 1611,
      "ãģĹãģł": 1612,
      "ãģĹãģĮ": 1613,
      "ãģĹãģ¨": 1614,
      "ãģĹãģ¾ãģĹãģŁ": 1615,
      "ãģĹãĤĪãģĨ": 1616,
      "ãģĹãĤįãĤĪ": 1617,
      "ãģĹéĿĻãģĭãģ«": 1618,
      "ãģĹä¸ĭ": 1619,
      "ãģŁãĤĪ": 1620,
      "ãģŁãģ¡": 1621,
      "ãģŁãĤģ": 1622,
      "ãģŁãģĹãģª": 1623,
      "ãģŁãģ°": 1624,
      "ãģŁãģ®åĭĿãģ¡ãģł": 1625,
      "ãģªãĤĪ": 1626,
      "ãģªäººãģ§ãģĻ": 1627,
      "ĠçŁ¥": 1628,
      "Ġç¬ĳ": 1629,
      "Ġç¢º": 1630,
      "Ġçľł": 1631,
      "ĠçĹħæ°Ĺãģ§ãģĻ": 1632,
      "Ġç¥ŀ": 1633,
      "Ġç²¾": 1634,
      "ĠçĨ±ãģĦ": 1635,
      "Ġçīĩä»ĺ": 1636,
      "ĠçĹĽãģĦ": 1637,
      "ĠçļĨãģķãĤĵ": 1638,
      "ĠçľŁ": 1639,
      "ãģ§ãģĦãģĦ": 1640,
      "ãģ§ãģįãģ¦": 1641,
      "ãģ§ãĤı": 1642,
      "ãģ§ãģĹãĤĩ": 1643,
      "ãģ§ãģĹãĤĩãģĨ": 1644,
      "ãģ§è¨Ģãģ£ãģ¦ãĤĭ": 1645,
      "ãģ§é£Łãģ¹ãģ¾ãģĻ": 1646,
      "ãģĻãģ¿ãģ¾ãģĽãĤĵ": 1647,
      "ãģ£ãģ¦ãģŃ": 1648,
      "ãģ£ãģ¦éģ": 1649,
      "ãģ£ãģ¦èª°": 1650,
      "ãģ£ãģ¦ãģ°": 1651,
      "ãģ£ãģ¦æĿ¥ãģªãģķãģĦ": 1652,
      "ãģ£ãģ¦ãģĵãģĦ": 1653,
      "ãģ£ãģ¦åĨ": 1654,
      "ãģ£ãģ¦ãģĦãģªãģĦ": 1655,
      "ãģķãģĭ": 1656,
      "ãģķãģ£ãģŁ": 1657,
      "ãģķãģĽãģ¦": 1658,
      "ãģ¾ãģı": 1659,
      "ãģ¾ãģ£ãģŁ": 1660,
      "ãģ¾ãģĪãģ¦": 1661,
      "ãģ¾ãĤĬãģªãģķãģĦ": 1662,
      "ãģ«ãĤĤ": 1663,
      "ãģ«ä¼": 1664,
      "ãģ«ä½¿": 1665,
      "ãģ«èģŀãģįãģªãģķãģĦ": 1666,
      "ãģ«ãģĹãģªãĤĪ": 1667,
      "ãģ«éģħ": 1668,
      "ãģ«èģŀãģĦãģ¦ãģ¿ãģ¦": 1669,
      "ãģ«åº§ãģ£ãģ¦": 1670,
      "ãģ«å¸°": 1671,
      "ãģ«ãģĹãĤįãĤĪ": 1672,
      "Ġç§ģãĤĪ": 1673,
      "Ġç§ģãģ¨": 1674,
      "Ġç§ģéģ": 1675,
      "Ġç§ģãģ«ãģ¤ãģĦãģ¦": 1676,
      "Ġç§ģãģ§ãģĻãģĮ": 1677,
      "Ġç§ģãģ£ãģ¦åĨ": 1678,
      "Ġæ³£": 1679,
      "Ġæīķ": 1680,
      "Ġæ´Ĺ": 1681,
      "ĠæºĢ": 1682,
      "Ġæįķãģ¾ãģĪ": 1683,
      "Ġæ®ĭ": 1684,
      "Ġæ¿¡": 1685,
      "Ġæļĩ": 1686,
      "ĠæĬ±ãģįãģĹãĤģãģ¦": 1687,
      "ĠæħĮãģ¦ãģªãģĦ": 1688,
      "Ġæ¬¡ãģ¯": 1689,
      "Ġæ··": 1690,
      "Ġæ¸©ãĤģãģ¦": 1691,
      "ĠæĦı": 1692,
      "ĠæĬ¼ãģĻ": 1693,
      "ĠæĸĩçĦ¡": 1694,
      "ĠæļĳãģĦ": 1695,
      "ĠæĿ¥ãģªãģĦãģ§": 1696,
      "ĠãĥĢãĥ¡": 1697,
      "ĠãĥĲãĤ¤": 1698,
      "Ġãĥªãĥ©ãĥĥãĤ¯ãĤ¹": 1699,
      "Ġãĥªãĥĥãĥģ": 1700,
      "Ġãĥ¯ãĤ": 1701,
      "Ġãĥıãĥ¼": 1702,
      "ĠãĥĲãĥĥãĥģ": 1703,
      "Ġãĥĳãĥ¼ãĥ": 1704,
      "ĠãĥĻãĥĥ": 1705,
      "ĪãĥĥãĥĹ": 1706,
      "ãģłãģĦ": 1707,
      "ãģłãģª": 1708,
      "ãģłãĤį": 1709,
      "ãģłãģ¨": 1710,
      "ãģłãģ£ãģ¦è¨Ģ": 1711,
      "Ġè§¦ãĤĭ": 1712,
      "Ġè¨±": 1713,
      "Ġè©¦ãģĹãģ¦ãģ¿ãĤĭ": 1714,
      "Ġè«¦ãĤģ": 1715,
      "Ġè¬Ŀ": 1716,
      "Ġè¶ħ": 1717,
      "Ġè¿ĳ": 1718,
      "ãĤĭãĤĤ": 1719,
      "ãģĨãģ®": 1720,
      "ãģĨãģĿ": 1721,
      "ãģĨå¹´": 1722,
      "ãģĨãģłãģĦ": 1723,
      "ãĤĮãģªãģķãģĦ": 1724,
      "ãĤĮãģ¾ãģĻ": 1725,
      "ãĤĮãģªãģĦãģ§": 1726,
      "ãĤĮãģ¾ãģĽãĤĵ": 1727,
      "ãĤĮãģ¡ãĤĥãģ£ãģŁ": 1728,
      "ĠãĥĪãĥłãģł": 1729,
      "ĠãĥĪãĥłãģ®": 1730,
      "ĠãĥĪãĥłãģĦãĤĭ": 1731,
      "ĠãĥĪãĥłãģ®åĭĿãģ¡": 1732,
      "ĠãĥĪãĥłãĤĴè¦ĭãģ¤": 1733,
      "ĠãĥĪãĥłãģ£ãģ¦èª°": 1734,
      "ãĤĴãģ¨": 1735,
      "ãĤĴåı": 1736,
      "ãĤĴãģ©ãģĨãģŀ": 1737,
      "ãĤĴç¦": 1738,
      "ãĤĴç¢º": 1739,
      "ãĤĴä¸ĭ": 1740,
      "ãĤĴèĲ½": 1741,
      "ãĤĴãģµãģ£ãģŁ": 1742,
      "ãĤĵãģĭ": 1743,
      "ãĤĵãģĹãģ¦": 1744,
      "ãĤĵãģ¨": 1745,
      "ãĤĵãģĺ": 1746,
      "ãĤĵãģŁãģ®åĭĿãģ¡ãģł": 1747,
      "ãģ¡ãĤī": 1748,
      "ãģ¡ãģıãģłãģķãģĦ": 1749,
      "ãģ¡ãĤĩ": 1750,
      "ãģ¡ãģ¾ãģĪ": 1751,
      "ãģĭãģı": 1752,
      "ãģĭãģłãĤĪ": 1753,
      "ãģĭãĤĬãģ¾ãģĻ": 1754,
      "ãģĭåĪĨãģĭ": 1755,
      "ãģĭãĤĬãģ¾ãģĹãģŁ": 1756,
      "ãģĭãģĹãģĮ": 1757,
      "ãģĭãĤĮãģ¾ãģĽãĤĵ": 1758,
      "ãģªãģķãģĦãĤĪ": 1759,
      "ãģıãģ§ãģĻ": 1760,
      "ãģıãģ¡ãĤĥ": 1761,
      "ãģıãģĺ": 1762,
      "ãģĮãģ£ãģŁ": 1763,
      "ãģĮãĤī": 1764,
      "ãģĮãģĦãģĦ": 1765,
      "ãģĮä¸Ģ": 1766,
      "ãģĮæīķ": 1767,
      "ãģĮåĽ": 1768,
      "ãģĮæ¬": 1769,
      "ãģĮèµ·": 1770,
      "ãģĮä»ķäºĭ": 1771,
      "ĠãĤ«ãĥĥ": 1772,
      "ĠãĤ¯ãĤ¿": 1773,
      "ĠãĤ¿ãĥ": 1774,
      "ãģĳãĤĪ": 1775,
      "ãģĳãģªãģĦãģ§": 1776,
      "ãģĳãģ©": 1777,
      "ãģĳãģªãģķãģĦãĤĪ": 1778,
      "ãģ£ãģŁãģ§ãģĹãĤĩ": 1779,
      "ãģ£ãģŁãģĭãģı": 1780,
      "ãģ£ãģŁãģıãģ§ãģĻ": 1781,
      "Ġç§ģãģ¯è¡Į": 1782,
      "Ġç§ģãģ¯ãĤĦ": 1783,
      "Ġç§ģãģ¯ä¸Ģ": 1784,
      "Ġç§ģãģ¯è¡Įãģĳ": 1785,
      "Ġç§ģãģ¯çŁ¥": 1786,
      "Ġç§ģãģ¯ãĥĪãĥł": 1787,
      "Ġç§ģãģ¯ãģ¤ãģĦãģ¦": 1788,
      "Ġç§ģãģ¯çĸ²ãĤĮ": 1789,
      "Ġç§ģãģ¯è¦ļ": 1790,
      "Ġç§ģãģ¯ãģĵãģĵ": 1791,
      "Ġç§ģãģ¯éĢ": 1792,
      "Ġç§ģãģ¯ãģĿãĤĮãĤĴ": 1793,
      "Ġç§ģãģ¯èµ°ãĤĭ": 1794,
      "Ġç§ģãģ¯ç¬ĳãģ£ãģ¦": 1795,
      "Ġç§ģãģ¯éħĶ": 1796,
      "Ġç§ģãģ¯ãģŁãģ°": 1797,
      "ĠéĻį": 1798,
      "ĠéĽ»è©±": 1799,
      "Ġé¡Ķãģ¨": 1800,
      "Ġé¦¬": 1801,
      "Ġéĩĳ": 1802,
      "ĠéįµãĤĴ": 1803,
      "Ġéļł": 1804,
      "ãģįãģĤ": 1805,
      "ãģįãģ¾ãģĹãģŁ": 1806,
      "ãĤįãģĦãģ§": 1807,
      "ãĤįãĤĴè¦ĭãĤį": 1808,
      "ä¸ĬãģĴ": 1809,
      "ãģĹãģ¦ãĤĭ": 1810,
      "ãģĹãģ¦ãģĤ": 1811,
      "ãģĹãģ¦ãģĦãĤĭ": 1812,
      "ãģĹãģ¦ãģŃ": 1813,
      "ãģĹãģ¦ãģıãĤĮ": 1814,
      "ãģĹãģ¦ãģĦãģªãģķãģĦ": 1815,
      "ãģ¨ãģĽ": 1816,
      "ãģ¨ãģ©": 1817,
      "ãģ¨ãģįãģ¾ãģĻ": 1818,
      "ãģ¨ãģĦãģ£ãģ¦": 1819,
      "ãģĵãģ£ãģŁ": 1820,
      "ãģĵãĤĬ": 1821,
      "ãģĵãģĿ": 1822,
      "ãģĵãĤĴå": 1823,
      "ãģĵãģ£ãģŁãĤĵãģł": 1824,
      "Ġå½¼ãģ®": 1825,
      "Ġå½¼ãĤī": 1826,
      "Ġå½¼ãĤĴè¦ĭ": 1827,
      "ãĤĬãģªãģĦ": 1828,
      "ãĤĬãģ¾ãģĽãĤĵ": 1829,
      "ãĤĬè¨Ģ": 1830,
      "ãĤĬå±": 1831,
      "ãĤĬçĭ": 1832,
      "ãĤĬãĤĴç¦": 1833,
      "å¤±æķ": 1834,
      "å¤ªãģ£ãģ¦ãĤĭ": 1835,
      "å¤ĸé£": 1836,
      "ĠãĥĪãĥłãģ¯ãģĬ": 1837,
      "ĠãĥĪãĥłãģ¯ãĤĦ": 1838,
      "ĠãĥĪãĥłãģ¯é£": 1839,
      "ĠãĥĪãĥłãģ¯å¼": 1840,
      "ĠãĥĪãĥłãģ¯è¡Įãģ£ãģŁ": 1841,
      "ĠãĥĪãĥłãģ¯ç¤¼": 1842,
      "ĠãĥĪãĥłãģ¯å¤§ä¸Īå¤«": 1843,
      "ĠãĥĪãĥłãģ¯é£Łãģ¹": 1844,
      "ĠãĥĪãĥłãģ¯èµ°ãģ£ãģŁ": 1845,
      "ĠãĥĪãĥłãģ¯ç·": 1846,
      "ĠãĥĪãĥłãģ¯ç«ĭ": 1847,
      "ĠãĥĪãĥłãģ¯éĢ": 1848,
      "ĠãĥĪãĥłãģ¯åĭĿãģ£ãģŁ": 1849,
      "ĠãĥĪãĥłãģ¯è©±ãģĹãģŁ": 1850,
      "ĠãĥĪãĥłãģ¯ãĤĦãģ£ãģ¦ãģ¿ãģŁ": 1851,
      "ĠãĥĪãĥłãģ¯å¯Ŀ": 1852,
      "ĠãĥĪãĥłãģ¯éģĭè»": 1853,
      "ĠãĥĪãĥłãģ¯åĭķ": 1854,
      "ĠãĥĪãĥłãģ¯çľł": 1855,
      "ĠãĥĪãĥłãģ¯èĲ½ãģ¡": 1856,
      "ĠãĥĪãĥłãģ¯ãģķãģ£ãģŁ": 1857,
      "ãģ®ãģĭ": 1858,
      "ãģ®ãĥ¼": 1859,
      "ãģ®äºº": 1860,
      "ãģ®ãģıãĤī": 1861,
      "ãģ®ãģĬãģĶãĤĬ": 1862,
      "ãģ®ãģŁãĤģ": 1863,
      "ĠãģĬè¡Į": 1864,
      "ĠãģĬãģĦãģ§": 1865,
      "ĠãģĬãĥ¼": 1866,
      "ĠãģĬãĤĤ": 1867,
      "ĠãģĬè¨": 1868,
      "ĠãģĬä½": 1869,
      "ĠãģĬãģ¾ãģĪ": 1870,
      "ĠãģĬæīĭ": 1871,
      "ĠãģĬæīĭä¼Ŀ": 1872,
      "ĠãģĬéĽ»è©±": 1873,
      "ĠãģĬåħĪãģ«": 1874,
      "ĠãģĬå¾ħ": 1875,
      "ĠãģĬéĿĻãģĭãģ«": 1876,
      "ĠãģĬåħ¥ãĤĬãģıãģłãģķãģĦ": 1877,
      "ĠãģĬèĮ": 1878,
      "ĠãģĬãģĦãģĬ": 1879,
      "Ġãģĵãģ¡ãĤī": 1880,
      "ãģĬè©±": 1881,
      "ãģĬãĤĬãģ¾ãģĻ": 1882,
      "ãģĬä¹Ĺ": 1883,
      "ãģĬåħ¥ãĤĬãģıãģłãģķãģĦ": 1884,
      "ãĤīãĤĵ": 1885,
      "ãĤīãģªãģĦãģ§": 1886,
      "ãĤīãģıãĤī": 1887,
      "ãĤīãģ®åĭĿãģ¡ãĥ¼": 1888,
      "è¡Įãģ£ãģ¦ãģ¿": 1889,
      "è¡Įãģ£ãģ¨": 1890,
      "Ġä¹Ĺ": 1891,
      "ĠäºĨ": 1892,
      "Ġä¼ı": 1893,
      "ãģ¿ãģ¾ãģĽ": 1894,
      "ãģ¿ãĤĵãģª": 1895,
      "ãĤģãģŁ": 1896,
      "ãĤģãĤĭ": 1897,
      "ãģ¤ãģª": 1898,
      "ãģ¤ãĤĪ": 1899,
      "ãģ¤éģ": 1900,
      "ãģ¤ãĤįãģĦãģ§": 1901,
      "ãģĦãģ¦ãĤį": 1902,
      "ãģĦãģ¦ãģĦãģŁ": 1903,
      "ãģĦãģ¦ãģĦãģ¾ãģĻ": 1904,
      "ĠãĤĦãģģ": 1905,
      "ĠãĤĦãģ£ãģ»": 1906,
      "ãģĦãģ§ãģĦãĤĭ": 1907,
      "ãģĦãģ§æĪ»": 1908,
      "æ°ĹãĤĴåĩº": 1909,
      "ãģĤæģ": 1910,
      "ãģĤãĤĬãģ¾ãģĽãĤĵ": 1911,
      "ãģĤè¡Įãģ£ãģ¦ãģ¿": 1912,
      "Ġå½¼ãģ¯è¦": 1913,
      "Ġå½¼ãģ¯ãģĦãģĦ": 1914,
      "Ġå½¼ãģ¯ä¸Ģ": 1915,
      "Ġå½¼ãģ¯ãĥĪãĥł": 1916,
      "Ġå½¼ãģ¯åĺĺãĤĴãģ¤": 1917,
      "Ġå½¼ãģ¯éĽ»è©±": 1918,
      "Ġå½¼ãģ¯æĪĲ": 1919,
      "Ġå½¼ãģ¯èµ°ãģ£ãģŁ": 1920,
      "Ġå½¼ãģ¯æĿ¥ãģ¾ãģĹãģŁ": 1921,
      "Ġå½¼ãģ¯èµ°ãĤĭ": 1922,
      "Ġå½¼ãģ¯å¹´": 1923,
      "Ġå½¼ãģ¯éłŃ": 1924,
      "Ġå½¼ãģ¯çĹħæ°Ĺãģ§ãģĻ": 1925,
      "Ġå½¼ãģ¯ãģĨãģĿ": 1926,
      "Ġå½¼ãģ¯å¤ĸé£": 1927,
      "æĿ¥ãģĦ": 1928,
      "æĿ¥ãģ¾ãģĻ": 1929,
      "ãĤĦãģ£ãģ¦": 1930,
      "ãĤĦãĤĭ": 1931,
      "ãĤĦãĤĬ": 1932,
      "ãĤĦãĤĬãģªãģķãģĦ": 1933,
      "ĠãģĿãģ£ãģĭ": 1934,
      "ĠãģĿãĤĵãģª": 1935,
      "ĠãģĿãģ®ãģĵãģ¨": 1936,
      "ãĥ¼ãĤº": 1937,
      "ĠãģĤãģ£": 1938,
      "ĠãģĤãģĸ": 1939,
      "ĠãģĤãĤĵãģŁãģ®åĭĿãģ¡ãģł": 1940,
      "ĠãģĤãģ£ãģŁãģĭãģı": 1941,
      "ĠãģĤãģ®ãĥ¼": 1942,
      "ĠãģĤãģĤæģ": 1943,
      "è¦§ãģıãģłãģķãģĦ": 1944,
      "è¦ĸãģĹ": 1945,
      "ãĤĤãģłãĤĪ": 1946,
      "ãĤĤãģĿãģĨ": 1947,
      "ãĤĤãģĨå¹´": 1948,
      "ĠåĥķãģŁãģ¡ãģ¯çŁ¥ãģ£ãģ¦ãĤĭ": 1949,
      "ĠåĥķãģĮæīķ": 1950,
      "Ġåĥķãģ®ãģĬãģĶãĤĬ": 1951,
      "ĠåĥķãĤĤãģłãĤĪ": 1952,
      "ãģĪãĤį": 1953,
      "ãģĦãģĦãģ§ãģĻãģĭ": 1954,
      "ãģĦãģĦãģĳãģ©": 1955,
      "ĠãģĻãģ¿ãģ¾ãģĽ": 1956,
      "Ġå¤±ç¤¼": 1957,
      "Ġå¤§äºº": 1958,
      "Ġå¤ªãĤīãģªãģĦ": 1959,
      "Ġå¤īãĤı": 1960,
      "Ġå¤ĸãģ«": 1961,
      "ãģĹãģĦãĤĪ": 1962,
      "ãģĹãģĦãģ§ãģĻ": 1963,
      "ãģĹãģĦäººãģ§ãģĻ": 1964,
      "ãģįãģªãģķãģĦãĤĪ": 1965,
      "ãĤĥãģ£ãģŁ": 1966,
      "ãĤĥãģªãģĦ": 1967,
      "ãĤĥãĤĵãģ¨": 1968,
      "Ġãģ©ãģ®ãģıãĤī": 1969,
      "Ġãģ©ãģĦãģ¦ãĤį": 1970,
      "Ġç§ģãģ¯å¿ĻãģĹãģĦ": 1971,
      "Ġç§ģãģ¯åĭĩ": 1972,
      "Ġç§ģãģ¯å¼ķãģ£è¾": 1973,
      "Ġç§ģãģ¯åħ¬å¹": 1974,
      "Ġç§ģãģ¯åĩł": 1975,
      "Ġç§ģãģ¯åĲĮæĦ": 1976,
      "ĠãĤĦãĤģãģŁ": 1977,
      "ĠãĤĦãĤģãģ¡ãĤĥ": 1978,
      "ĠãĤĦãĤģãģ¨ãģįãģ¾ãģĻ": 1979,
      "åĩºãĤį": 1980,
      "åĩºæĿ¥": 1981,
      "åĩºçĻº": 1982,
      "ãģĦãģŁãģ¯ãģļ": 1983,
      "ãĤĴãģ¤ãģĳãĤį": 1984,
      "ãĤĴãģ¤ãģĦãģ¦ãģĦãĤĭ": 1985,
      "ãĤĵãģ§ãģĹãģŁ": 1986,
      "ãĤĵãģ§ãģĹãĤĩãģĨ": 1987,
      "ĠãĥĪãĥłãģ¯æīķ": 1988,
      "ĠãĥĪãĥłãģ¯æĸĻ": 1989,
      "ĠãĥĪãĥłãģ¯æŃ»ãĤĵãģł": 1990,
      "Ġä¿ºãģ£ãģ¦": 1991,
      "Ġä¿ºãģŁãģ¡ãģ¯çŁ¥ãģ£ãģ¦ãĤĭ": 1992,
      "Ġä¿ºãģ®åĭĿãģ¡ãĥ¼": 1993,
      "Ġä¿ºãģŁãģ¡": 1994,
      "Ġä¿ºãĤīãģ®åĭĿãģ¡ãĥ¼": 1995,
      "ãģĴãģªãģķãģĦ": 1996,
      "ãģĴãĤį": 1997,
      "ãģĴãģ¾ãģĻ": 1998,
      "ãģĶãĤīãĤĵ": 1999,
      "ãģĶè¦§ãģıãģłãģķãģĦ": 2000,
      "ãģªãģĦãģ®": 2001,
      "ĠãĥĪãĥłãģ«ä¼Ŀ": 2002,
      "ĠãĥĪãĥłãģ«æķ": 2003,
      "ĠãĥĪãĥłãģ«ä¼ļ": 2004,
      "ĠãĥĪãĥłãģ«æīĭ": 2005,
      "ĠãĥĪãĥłãģ«èģŀãģįãģªãģķãģĦ": 2006,
      "ĠãĥĪãĥłãģ«å¾": 2007,
      "ĠãĥĪãĥłãģ«éĽ»è©±ãģĹãģ¦": 2008,
      "ĠãĥĪãĥłãģ«ãĥıãĤ°ãģĹãģ¦": 2009,
      "ãĤĴæĮ¯ãģ£ãģŁ": 2010,
      "ä¸ĢæĿ¯": 2011,
      "ä¸Ģçķ": 2012,
      "è¦ĭãģĽãģ¦": 2013,
      "è¦ĭãĤįãĤĪ": 2014,
      "è¦ĭãģĪãĤĭ": 2015,
      "è¦ĭãģĮä¸Ģ": 2016,
      "ãģĭãģ«èģŀãģĦãģ¦ãģ¿ãģ¦": 2017,
      "ĠãģĵãĤĮåı": 2018,
      "ĠãģĵãĤĮéģĭ": 2019,
      "ĠãģĵãĤĮç¢º": 2020,
      "ĠãģĵãĤĮçĽ´ãģĹãģ¦": 2021,
      "ĠãģĵãĤĮæĮģ": 2022,
      "ĠãģĵãĤĮãģ«ãģĹãģªãĤĪ": 2023,
      "ĠãģĵãĤĮãģĮæ¬": 2024,
      "äºĭãģ¯å¿ĺ": 2025,
      "åĭĿãģłãĤĪ": 2026,
      "ãĤĪãģĨãģ«": 2027,
      "ĠãģĵãģĵãģłãĤĪ": 2028,
      "Ġãģĵãģĵãģ«ãģĤ": 2029,
      "Ġãģĵãģĵãģ¸æĿ¥ãģªãģķãģĦ": 2030,
      "Ġãģĵãģĵãģ«åº§ãģ£ãģ¦": 2031,
      "ĠãģĿãĤĮãģ£ãģ¦": 2032,
      "ĠãģĿãĤĮå¥½": 2033,
      "ĠãģĿãĤĮãģ§ãģĦãģĦ": 2034,
      "ĠãģĿãĤĮãģĮä»ķäºĭ": 2035,
      "ĠãĤĤãģĨéģħ": 2036,
      "ĠãĤĤãģĨå¯Ŀ": 2037,
      "īĭä¼ĿãģĨãĤĪ": 2038,
      "ĠãģķãģĤãģ©ãģĨãģŀ": 2039,
      "ĠãģķãģĤä¹Ĺ": 2040,
      "åı©ãģĦãģŁ": 2041,
      "åı¯æĦ": 2042,
      "åħ¥ãĤĮãģ¦": 2043,
      "åħ¥ãĤĬãĤĴç¦": 2044,
      "è¨ĺãĤĴ": 2045,
      "Ġä¸ĬãģĮãĤĭãģ®æīĭä¼Ŀãģ£ãģ¦": 2046,
      "ãģ¹ãĤĭãĤĪ": 2047,
      "ãģ¹ãĤĭãĤĵãģł": 2048,
      "ãĤıãģŃ": 2049,
      "ãĤıãģĭãĤĬãģ¾ãģĻ": 2050,
      "Ġæ°Ĺãģ«åħ¥": 2051,
      "Ġèª°ãģ«ãĤĤ": 2052,
      "Ġèª°ãģĭãģ«èģŀãģĦãģ¦ãģ¿ãģ¦": 2053,
      "Ġç§ģãģ¯æ®ĭ": 2054,
      "Ġç§ģãģ¯æ½Ķ": 2055,
      "Ġç§ģãģ¯æļĩ": 2056,
      "Ġç§ģãģ¯æ¸ħ": 2057,
      "Ġç§ģãģ¯æĭį": 2058,
      "Ġç§ģãģ¯æīĭä¼ĿãģĨãĤĪ": 2059,
      "äººéĸĵ": 2060,
      "è©¦ãģĹãģŁ": 2061,
      "éģķãģ£ãģ¦ãģĦãĤĭ": 2062,
      "ãģ¸ãģĦãģĳ": 2063,
      "ãģ¸ãģĬãģĦãģ§": 2064,
      "ãģ£ãģ¨ãģĵãģĨ": 2065,
      "ĠåĩºçĻº": 2066,
      "ĠåĭķãģĦãģŁ": 2067,
      "ãģ£ãģ¦ãģĬãģĦãģŁãģ¯ãģļ": 2068,
      "Ġç§ģãģĮä½": 2069,
      "Ġç§ģãģĮåĭĿãģ¡": 2070,
      "Ġç§ģãģĮä½¿": 2071,
      "Ġç§ģãģĮå£Ĭ": 2072,
      "Ġç§ģãģĮä¸Ģçķ": 2073,
      "Ġè¡Įãģĳ": 2074,
      "Ġè¡ĮãģįãģªãģķãģĦ": 2075,
      "Ġè¡ĮãģĭãģªãģĦãģ§": 2076,
      "Ġè¡Įãģĭãģª": 2077,
      "Ġè¡ĮãģĳãĤĭ": 2078,
      "ĠéĿĻãģĭãģ«ãģĹãģ¦ãģıãĤĮ": 2079,
      "ãģĵãģ¨ãģĮåĩº": 2080,
      "ä½ķ": 2081,
      "æŃ»ãĤĵãģł": 2082,
      "æŃĮãģĪãĤĭ": 2083,
      "æŃ£ãģĹãģĦ": 2084,
      "æŃĮãģĦãģ¾ãģĻ": 2085,
      "èģŀãģĳ": 2086,
      "Ĭ©ãģĳãģ¦ãĤĦãģ£ãģ¦": 2087,
      "ãģ£ãģ¡ãĤĥãģ£ãģŁ": 2088,
      "ĠåĭĿãģ¦ãĤĭ": 2089,
      "ĠåĭĿãģ¤ãĤĪ": 2090,
      "Ġåħ¥ãĤĮ": 2091,
      "ãģ£ãģ¦ãĤĭãĤĪ": 2092,
      "ãĤĴåĪĩ": 2093,
      "ãģĭãģªãģĦãģ§ãģıãĤĮ": 2094,
      "ĠãģĤãĤĬå¾": 2095,
      "Ġå¤§ä¸Īå¤«ãģ§ãģĻãģĭ": 2096,
      "è¨Ģãģ£ãģ¦ãģĦãĤĭ": 2097,
      "è¨ĢãģĦãģ¾ãģĹãģŁ": 2098,
      "è¨Ģãģ£ãģ¦ãģĬãģĦãģŁãģ¯ãģļ": 2099,
      "±ãģĦãģ¾ãģĹãģŁ": 2100,
      "çĶ¨ãģĹãģ¦ãģıãģłãģķãģĦ": 2101,
      "éĸĭãģĳãĤį": 2102,
      "ĠãģĦãģĦåĬł": 2103,
      "ĠåĬ©ãģĳãģ¦ãģıãģłãģķãģĦ": 2104,
      "ĠæĤªãģĭãģ£ãģŁ": 2105,
      "ĠæĤ²æ": 2106,
      "ãĤĮãģ¦ãģ¦": 2107,
      "ãĤĦãģ£ãģ¦ãģ¿ãĤĭãĤĵãģł": 2108,
      "ĠãģĿãģĨãģ§ãģĻãģĭ": 2109,
      "ĠãģĿãģĨæĢĿ": 2110,
      "ĠãģĿãģĨãģªãĤĵãģł": 2111,
      "ĠãģĿãģĨãģ¯æĢĿãģĦãģ¾ãģĽãĤĵ": 2112,
      "ĠãģĿãģĨãģĦãģĨ": 2113,
      "ĠãģĿãģĨãģłãģ¨": 2114,
      "ĠãģĿãģĨè¨Ģãģ£ãģ¦ãģĬãģĦãģŁãģ¯ãģļ": 2115,
      "ãģ©ãģĨãĤĤãģĿãģĨ": 2116,
      "èµ°ãĤĮ": 2117,
      "ĠãģĤãĤĬãģĮãģ¨ãĤĪ": 2118,
      "ĠãģĵãĤĵãģ«ãģ¡ãģ¯ãĥĪãĥł": 2119,
      "åĬŁãģĹãģŁ": 2120,
      "åĬªåĬ": 2121,
      "Ġï¼ĵ": 2122,
      "Ġï¼ķ": 2123,
      "Ġï¼Ĺ": 2124,
      "Ġï¼Ļ": 2125,
      "ãĤ¯ãĤ¿": 2126,
      "ãĤ¯ãĥĵ": 2127,
      "ãĤ¯ãĥ¼ãĥ": 2128,
      "Ġãģªãģľ": 2129,
      "Ġãģ¾ãģķãģĭ": 2130,
      "Ġãģ¾ãģ£ãģŁãģıãģ§ãģĻ": 2131,
      "Ġãģ¾ãģĤè¡Įãģ£ãģ¦ãģ¿": 2132,
      "Ġå®¶ãģ«æĿ¥ãģĦãĤĪ": 2133,
      "Ġå®¶ãģ«æĿ¥ãģ¦": 2134,
      "Ġå¿ĺãĤĮãģ¦": 2135,
      "ãģĹãĤĩãģ«æĿ¥ãģªãģķãģĦ": 2136,
      "Ġçĸ²ãĤĮãģ¾ãģĹãģŁ": 2137,
      "Ġçĸ²ãĤĮãģ¦ãģĦãĤĭ": 2138,
      "ãģ§ãģįãĤĭãĤĪ": 2139,
      "ãĤĪãģıãģĹãģªãģķãģĦ": 2140,
      "ãģķãģ¾ãģ§ãģĹãĤĩãģĨ": 2141,
      "Ġç§ģãģ®åĭĿãģ¡": 2142,
      "Ġç§ģãģ®è¨Ģãģ£ãģ¦ãĤĭ": 2143,
      "Ġç§ģãģ®ãģĬãģĶãĤĬ": 2144,
      "Ġç§ģãģ®ãĤĴãģ©ãģĨãģŀ": 2145,
      "Ġç§ģãĤĤåıĤ": 2146,
      "Ġç§ģãĤĤãĤĤãģĨå¹´": 2147,
      "Ġç§ģãĤĤåħ¥ãĤĮãģ¦": 2148,
      "Ġæīĭä¼ĿãģĨãĤĪ": 2149,
      "ĠæĹ©ãģĭãģ£ãģŁ": 2150,
      "Ġç§ģãģ¯èŃ¦å": 2151,
      "Ġç§ģãģ¯èªŃ": 2152,
      "Ġç§ģãģ¯è²§ä": 2153,
      "Ġç§ģãģ¯èĩªçĶ": 2154,
      "Ġç§ģãģ¯å¤§ä¸Īå¤«": 2155,
      "Ġç§ģãģ¯å¤ªãģ£ãģ¦ãģĦãĤĭ": 2156,
      "Ġä»²éĸĵ": 2157,
      "Ġä»»ãģĽãģ¦": 2158,
      "Ġä»ĬãģĻ": 2159,
      "Ġä½ķãģ¦ãģĵãģ¨ãģł": 2160,
      "Ġä½ķãģ§ãĤı": 2161,
      "Ġä½ķãģ«ä½¿": 2162,
      "Ġä½ķãģĮèµ·": 2163,
      "Ġä½ķãģ®ãģŁãĤģ": 2164,
      "Ġä½ķè¨Ģãģ£ãģ¦ãģĦãĤĭ": 2165,
      "Ġåĥķãģ¯å¿": 2166,
      "Ġåĥķãģ¯èµ·": 2167,
      "Ġåĥķãģ¯èĭ": 2168,
      "Ġåĥķãģ¯ãĥªãĥ©ãĥĥãĤ¯ãĤ¹": 2169,
      "ĠãĤĦãĤģãĤįãĤĪ": 2170,
      "Ġèª°ãģĮè¡Įãģı": 2171,
      "Ġèª°ãģĮæĿ¥ãģŁ": 2172,
      "Ġèª°ãģĮèµ°ãģ£ãģŁ": 2173,
      "Ġèª°ãģĮåĭĿãģ£ãģŁ": 2174,
      "Ġèª°ãģĮæĿ¥ãģ¾ãģĹãģŁ": 2175,
      "Ġèª°ãģĮæŃ»ãĤĵãģł": 2176,
      "Ġåĩºãģ¦ãģĳ": 2177,
      "ĠãĤĤãģ¡ãĤįãĤĵãģķ": 2178,
      "ĠåĭĿãģ£ãģŁãģģ": 2179,
      "éĸĵéģķãģ£ãģ¦ãģĦãĤĭ": 2180,
      "å¿µãģª": 2181,
      "æĢ¥ãģĦãģ§": 2182,
      "æķ¢ãģł": 2183,
      "æĸĩãģª": 2184,
      "ĠãĤĪãģıèģŀãģįãģªãģķãģĦ": 2185,
      "ĠãĤĪãģıèģŀãģĳ": 2186,
      "ãĥ³ãģĹãģ¦": 2187,
      "ãĥ³ãģ«ãģĹãģ¦ãģıãģłãģķãģĦ": 2188,
      "ãģĹãģªãĤĵãģł": 2189,
      "ãģĹãģ¾ãģĦãģ¾ãģĹãģŁ": 2190,
      "ĠæŃĮãģĪãĤĭ": 2191,
      "ĠæŃ¢ãģ¾": 2192,
      "ĠæŃ©ãģĳãĤĭ": 2193,
      "ĠæŃ»ãģª": 2194,
      "ĠæŃĮãģĮ": 2195,
      "Ġæ¥½ãģ«ãģĹãģ¦ãģıãģłãģķãģĦ": 2196,
      "Ġæ¥½åĭĿãģłãĤĪ": 2197,
      "ĠãĥĪãĥłãĤĴæĬ±ãģįãģĹãĤģãģ¦": 2198,
      "ĠãĥĪãĥłãĤĴæįķãģ¾ãģĪãĤį": 2199,
      "ĠãĥĪãĥłãĤĴæ®´": 2200,
      "ĠãĥĪãĥłãĤĴæİ¢ãģĹãģ¦": 2201,
      "ĠãĥĪãĥłãĤĴæŃ¢ãĤģ": 2202,
      "ãģĮãģ§ãģįãģ¾ãģĻ": 2203,
      "Ġå½¼ãĤīãģ¯åĺĺãĤĴãģ¤": 2204,
      "Ġå½¼ãĤīãģ¯åĭĿãģ£ãģŁ": 2205,
      "Ġå½¼ãĤīãģ¯è²łãģĳãģŁ": 2206,
      "Ġå½¼ãĤīãģ¯åİ": 2207,
      "Ġå½¼ãĤīãģ¯æ³³": 2208,
      "Ġãģĵãģ£ãģ¡ãģĬãģĦãģ§": 2209,
      "Ġãģĵãģ£ãģ¡ãģ«æĿ¥ãģĦãĤĪ": 2210,
      "Ġãģĵãģ£ãģ¡ãģ¸æĿ¥ãģªãģķãģĦ": 2211,
      "Ġãģĵãģ£ãģ¡ãģ«æĿ¥ãģ¦": 2212,
      "Ġãģĵãģ£ãģ¡ãģ¸ãģĬãģĦãģ§": 2213,
      "ĠãĤĦãģ£ãģ¦ãģ¿ãģŁ": 2214,
      "Ġèµ·ãģįãģ¦ãĤĭ": 2215,
      "Ġä¿ºãģ¯ãģĦãģĭ": 2216,
      "Ġä¿ºãģ¯ãĥĩãĥ": 2217,
      "Ġä¿ºãģ¯äººéĸĵ": 2218,
      "Ġä¿ºãģ¯ãĤ¯ãĥ¼ãĥ": 2219,
      "Ġä¿ºãģ¯éĸĵéģķãģ£ãģ¦ãģĦãĤĭ": 2220,
      "ĠéłŃãĤĴä¸ĭ": 2221,
      "ĠãģĿãĤĮãģ¯çĦ¡": 2222,
      "ĠãģĿãĤĮãģ¯æĸ°": 2223,
      "ĠãģĿãĤĮãģ¯èªį": 2224,
      "ĠãģĿãĤĮãģ¯ãĥĨãĥ": 2225,
      "ĠãģĿãĤĮãģ¯å¤±æķ": 2226,
      "åıĤãģĹãģ¾ãģĻ": 2227,
      "ä½¿ãģĦãģª": 2228,
      "ĠæĤ²ãģĹãģĦãģ§ãģĻ": 2229,
      "ĠæĤ²ãģĹãģĦãĤıãģŃ": 2230,
      "Ġé£Ľãģ³è¶Ĭ": 2231,
      "Ġå¿ĺãĤĮãĤį": 2232,
      "Ġå¿ĺãĤĮãģ¾ãģĹãģŁ": 2233,
      "Ġå¿ĺãĤĮãģ¡ãģ¾ãģĪ": 2234,
      "ĠæĹ©ãģıæĿ¥ãģªãģķãģĦ": 2235,
      "ĠæĹ©ãģıãģĬãģĦãģ§": 2236,
      "ĠæĹ©ãģıãģĦãĤīãģ£ãģĹãĤĥãģĦ": 2237,
      "ĠæĹ©ãģıå®¶": 2238,
      "ĠæĹ©ãģıæĿ¥ãģĦ": 2239,
      "²łãģĳãģł": 2240,
      "æīĭãģĹãģŁ": 2241,
      "æīĭãĤĴæ´ĹãģĦãģªãģķãģĦ": 2242,
      "ç§ģãģªãģ®": 2243,
      "èª°ãģ§ãģĻãģĭ": 2244,
      "Īĩãģ«": 2245,
      "Īĩãģªäººãģ§ãģĻ": 2246,
      "įķãģ¾ãģĪãģ¦": 2247,
      "ãģĲãģĿãĤĮãĤĴ": 2248,
      "ãģĲãģĵãģ¨ãģĮåĩº": 2249,
      "ãģĦãģĳãģªãģĦãģ®": 2250,
      "Ġãģ¡ãĤĥãĤĵãģ¨": 2251,
      "ĠåĪĨãģĭãģ£ãģŁ": 2252,
      "ĠåĪĨãģĭãģ£ãģ¦ãĤĭ": 2253,
      "ĠåĪĨãģĭãģ£ãģ¦ãģ¾ãģĻ": 2254,
      "ĠåĪĨãģĭãĤīãģªãģĦãĤĪ": 2255,
      "Ġå¸°ãģ£ãģ¦ãģįãģªãģķãģĦ": 2256,
      "Ġå¸°ãģ£ãģ¦ãģĵãģĦ": 2257,
      "ãģĹãģıå¾ħãģ£ãģ¦": 2258,
      "ãģĹãģıãģĹãģ¦ãģĤ": 2259,
      "Ġç´ĦæĿ": 2260,
      "ĠçĶ·ãģ«ãģª": 2261,
      "ãģ«è¡ĮãģįãģªãģķãģĦ": 2262,
      "ĠæĻ¯æ°Ĺ": 2263,
      "ĠæĢ¥ãģİ": 2264,
      "ĠæĢ¥ãģĦãģ§æĪ»": 2265,
      "Ġè³¢ãģĦ": 2266,
      "ĠãĥĪãĥłãģĮæĿ¥ãģŁ": 2267,
      "ĠãĥĪãĥłãģĮè²łãģĳãģŁ": 2268,
      "ĠãĥĪãĥłãģĮç¾¨ãģ¾": 2269,
      "ĠãĥĪãĥłãģĮè¦ĭãģĪãĤĭ": 2270,
      "ĠéĢ£çµ": 2271,
      "ĠéĢĢå±": 2272,
      "ĠéģħãģĻ": 2273,
      "ĠéģķãģĨ": 2274,
      "Ġé³¥ãģĮåĽ": 2275,
      "ãģĵãģĵãģ«ãģĤ": 2276,
      "å¤§ä¸Īå¤«ãģĭãģª": 2277,
      "ĠãģĬçĸ²ãĤĮæ§ĺ": 2278,
      "æĿ¥ãģŁæĿ¥ãģŁ": 2279,
      "ĠãģĻãģ¿ãģ¾ãģĽãĤĵãģŃ": 2280,
      "ãģĶãģĸãģĦãģ¾ãģĽãĤĵ": 2281,
      "ĠãĤĤãģĨä¸ĢåĽ": 2282,
      "Ġä¸ĭãĤĴè¦ĭãĤį": 2283,
      "Ġè¡ĮãģıãĤĵãģĺ": 2284,
      "é£Łãģ¹ãģ¦": 2285,
      "Ġåħ¥ãģ£ãģ¦ãģıãģłãģķãģĦ": 2286,
      "Ġåħ¥ãģ£ãģ¦ãģįãģªãģķãģĦ": 2287,
      "åº¦ãĤĦãģ£ãģ¦ãģ¿ãģªãģķãģĦ": 2288,
      "Ġæľ¬æ°ĹãģłãĤĪ": 2289,
      "Ġæľ¬æ°Ĺãģ§è¨Ģãģ£ãģ¦ãĤĭ": 2290,
      "Ġå®¶ãģ«ãģĦãģªãģķãģĦ": 2291,
      "Ġå®¶ãģ«æĪ»": 2292,
      "Ġå®¶ãģ«éĽ»è©±ãģĹãģ¦": 2293,
      "Ġå®¶ãģ«ãģ¨ãģ©": 2294,
      "Ġçĸ²ãĤĮãģŁãĤĪ": 2295,
      "Ġçĸ²ãĤĮãģŁãĥ¼": 2296,
      "Ġéłĳå¼µãĤĮãĤĪ": 2297,
      "æĢĿæ¡Ī": 2298,
      "Ġç«ĭãģ¡ä¸ĬãģĮãĤĭãģ®æīĭä¼Ŀãģ£ãģ¦": 2299,
      "Ġç«ĭãģ¡åħ¥ãĤĬãĤĴç¦": 2300,
      "Ġé»Ļãģ£ãģ¦ãģ¦": 2301,
      "Ġå½¼å¥³ãģ¯ãĤĦãģ£ãģ¦ãģ¿ãģŁ": 2302,
      "Ġå½¼å¥³ãģ¯æ³£": 2303,
      "Ġå½¼å¥³ãģ¯è©¦ãģĹãģŁ": 2304,
      "Ġå½¼å¥³ãģ¯èª°ãģ§ãģĻãģĭ": 2305,
      "ĠéłŃãĤĴåĨ·ãĤĦãģĽãĤĪ": 2306,
      "´ãģĹãģ¦ãģĦãĤĭ": 2307,
      "ä¹Ĺè»": 2308,
      "ç´ĻãĤĴæ": 2309,
      "çµĤäº": 2310,
      "çµĲå©ļ": 2311,
      "çĻ½ãģł": 2312,
      "è¿°åıĤ": 2313,
      "è·³ãģ¹ãĤĭãĤĪ": 2314,
      "éĢ£ãĤĮãģ¦": 2315,
      "ĽãģĦãĤĵãģ§ãģĹãĤĩãģĨ": 2316,
      "ãģĺãģ¦ãģıãĤĮ": 2317,
      "ãĤ¿ãĥ³ãģ«ãģĹãģ¦ãģıãģłãģķãģĦ": 2318,
      "ãģĦãģĹãģ¾ãģĻãĤĪ": 2319,
      "ãĥģãĥ¼ãĤº": 2320,
      "ãĥīãĥ«ãĤĴ": 2321,
      "ãĥīãĤĴèĲ½": 2322,
      "ãĥīãģ¸ãģĦãģĳ": 2323,
      "Ġãģ¯ãģ£ãģį": 2324,
      "ĠãģĶä¹Ĺè»": 2325,
      "Ġå¾¡åħ": 2326,
      "Ġåıĸãģ£ãģ¦ãģĬãģĦãģ¦": 2327,
      "ĠåıĤãĤĬãģ¾ãģĹãģŁ": 2328,
      "Ġåıįå¯": 2329,
      "Ġçģ«ãģ¯ç": 2330,
      "Ġç§ģãģŁãģ¡ãģ¯çĶ·": 2331,
      "Ġç§ģãģŁãģ¡ãģ¯çŁ¥ãģ£ãģ¦ãĤĭ": 2332,
      "Ġç§ģãģŁãģ¡ãģ¯åĬªåĬ": 2333,
      "ĠæĮģãģ£ãģ¦ãĤĭãĤĪ": 2334,
      "ĠèģŀãģĦãģ¦": 2335,
      "ĠèģŀãģįãģªãģķãģĦ": 2336,
      "ĠèģŀãģĭãģªãģĦãģ§ãģıãĤĮ": 2337,
      "Ġè·³ãĤĵãģ§": 2338,
      "Ġè¾ŀãĤģãģ¾ãģĻ": 2339,
      "ĠãĥĪãĥłãĤĴãĥıãĤ°ãģĹãģ¦": 2340,
      "ĠãĥĪãĥłãĤĴåı©ãģĦãģŁ": 2341,
      "ĠãĥĪãĥłãĤĴéĢ£ãĤĮãģ¦": 2342,
      "ĠãĤıãģĭãģ£ãģŁ": 2343,
      "ĠãĤıãģī": 2344,
      "ĠãĤıãģĭãĤĬãģ¾ãģĹãģŁ": 2345,
      "ãģĹãģ¦ãģ¿ãģ¦": 2346,
      "æĿ¥ãģ¦ãģŃ": 2347,
      "ĠåĥķãĤīãģ¯å¾ħ": 2348,
      "ĠåĥķãĤīãģ¯æģ": 2349,
      "ĠåĥķãĤīãģ¯è©±ãģĹãģŁ": 2350,
      "ĠèĲ½ãģ¡ãģ¤ãģĳãĤĪ": 2351,
      "Ġèµ°ãģ£ãģ¦": 2352,
      "Ġèµ·ãģįä¸ĬãģĮãĤĭãģ®æīĭä¼Ŀãģ£ãģ¦": 2353,
      "ĠãĥĪãĥłãģ¯æ³£ãģĦãģŁ": 2354,
      "ĠãĥĪãĥłãģ¯æ³£ãģįãģ¾ãģĹãģŁ": 2355,
      "ĠãĥĪãĥłãģ¯æ³£ãģĦãģ¦ãģĦãģŁ": 2356,
      "ĠãģĵãĤĮãĤĴä½¿ãģĦãģª": 2357,
      "Ġãģĵãģĵãģ§å¾ħãģ£ãģ¦": 2358,
      "Ġãģĵãģĵãģ§é£Łãģ¹ãģ¾ãģĻ": 2359,
      "Ġãģĵãģĵãģ§ãĤµãĤ¤": 2360,
      "Ġãģ©ãģĨãģŀãģĬè©±": 2361,
      "åº§ãĤĬ": 2362,
      "Ġæľ¬å½ĵãģ«": 2363,
      "Ġæľ¬å½ĵãģ§ãģĻãĤĪ": 2364,
      "ĠãģªãĤĵãģ¦ãģĵãģ¨ãģł": 2365,
      "ĠãģªãĤĵãģ¦ãģĵãģ£ãģŁ": 2366,
      "ĠãģªãĤĵãģ¦åı¯æĦ": 2367,
      "Ġãģ¾ãģŁæĿ¥ãģ¦ãģŃ": 2368,
      "Ġæīĭä¼Ŀãģ£ãģ¦ãĤĪ": 2369,
      "ãģ¡ãĤĥãģ£ãģŁãĤĪ": 2370,
      "Ġä»ķäºĭãģ¯ãģ©ãģĨ": 2371,
      "Ġä»ķäºĭãĤĴè¦ĭãģ¤": 2372,
      "Ġä»ķäºĭãģ«è¡ĮãģįãģªãģķãģĦ": 2373,
      "Ġæ¥½ãģĹãģĭãģ£ãģŁ": 2374,
      "Ġãģ¡ãĤĩãģ£ãģ¨æĿ¥ãģ¦": 2375,
      "Ġãģ¡ãĤĩãģ£ãģ¨ãģĻãģ¿ãģ¾ãģĽãĤĵ": 2376,
      "Ġãģ¡ãĤĩãģ£ãģ¨è¦ĭãģĽãģ¦": 2377,
      "ĠæĻĤéĸĵãģ¯ãģĤ": 2378,
      "ĠæĻĤéĸĵãģ«éģħ": 2379,
      "ĠæĻĤéĸĵçµĤäº": 2380,
      "Ġé³¥ãģ¯é£Ľ": 2381,
      "Ġé³¥ãģ¯é³´": 2382,
      "Ġé³¥ãģ¯æŃĮãģĦãģ¾ãģĻ": 2383,
      "ĠãĤĤãģĨä¸Ģåº¦ãĤĦãģ£ãģ¦ãģ¿ãģ¦": 2384,
      "Ġä¸ĭãģĮãģ£ãģ¦ãģ¦": 2385,
      "Ġä¸ĭãģĮãģ£ãģ¦ãģĦãĤį": 2386,
      "ĠãģĺãĤĥãģĤãģª": 2387,
      "ĠãģĺãĤĥãģĤä½ķ": 2388,
      "ķãģ£è¶Ĭ": 2389,
      "Ġãģ¨ãĤĵãģ§ãĤĤãģªãģĦ": 2390,
      "Ġãģ¨ãĤĵãģ§ãĤĤãģĤãĤĬãģ¾ãģĽãĤĵ": 2391,
      "Ġãģ¨ãĤĵãģ§ãĤĤãģĶãģĸãģĦãģ¾ãģĽãĤĵ": 2392,
      "Ġç§ģãģ«è¡ĮãģĭãģĽãģ¦ãģıãģłãģķãģĦ": 2393,
      "ĠãĥĪãĥłãģ«èŃ¦åĳĬãģĹãģªãģķãģĦ": 2394,
      "ĠãĥĪãĥłãģ«èŃ¦åĳĬãģĻãĤĭ": 2395,
      "ĠãĥĪãĥłãģ«èŃ¦åĳĬãģĹãģ¦ãģıãģłãģķãģĦ": 2396,
      "Ġä¸Ńãģ«åħ¥ãĤĮãģ¦ãĤĪ": 2397,
      "Ġä¸Ńãģ«åħ¥ãĤĮãģ¦ãģıãģłãģķãģĦ": 2398,
      "ªåĪĩãģªäººãģ§ãģĻ": 2399,
      "¼ãĤĵãģ§ãģ¦": 2400,
      "åĪĨãģĭãĤīãģªãģĦãĤĪ": 2401,
      "æ¬łãģªãĤĵãģł": 2402,
      "èĩŃãģĦãĤĪ": 2403,
      "èĩ´ãģĹãģ¦ãģĦãĤĭ": 2404,
      "è¾ŀãĤģãģ¾ãģĻ": 2405,
      "è¾ŀåĦĢ": 2406,
      "Ġä¸Ģäººãģł": 2407,
      "Ġä¸Ģãģ¤éģ": 2408,
      "ıãģĻãĤĭãģłãĤį": 2409,
      "Ķãģ¨ä¸Ģç·Ĵ": 2410,
      "ãģ¥ãģĦãģŁ": 2411,
      "ãģ¥ãģıãģª": 2412,
      "ãģİãĤĭ": 2413,
      "ãģľãģ¦": 2414,
      "ãĥĢãĥ¡ãģªãģ®": 2415,
      "ĠãģĨãĤı": 2416,
      "ĠãģĨãģ¾ãģı": 2417,
      "ĠãģıãĤīãģıãĤī": 2418,
      "Ġãģıãģ¤ãĤįãģĦãģ§": 2419,
      "ĠãģĹãģ¾ãģ£ãģŁ": 2420,
      "ĠãģĹãģıãģĺ": 2421,
      "Ġå¾ħãģ¦ãģ¾ãģĻ": 2422,
      "Ġå¾ħãģ¤ãģª": 2423,
      "Ġå¯ĴãģĦ": 2424,
      "Ġå¯Ĵãģ£": 2425,
      "ĠåĦªãģĹãģĦäººãģ§ãģĻ": 2426,
      "ĠåĦªãģĹãģıãģĹãģ¦ãģĤ": 2427,
      "ãģ¯ç©º": 2428,
      "ãģ¯ãģ©ãģĨãģ§ãģĻãģĭ": 2429,
      "ĠçĦ¡æĸĻãģ§ãģĻ": 2430,
      "ĠçĦ¡è¦ĸãģĹ": 2431,
      "Ġç¶ļãģĳãģ¦": 2432,
      "Ġç¶ļãģĳãĤį": 2433,
      "ãģ£ãģ¦è¨Ģãģ£ãģ¦ãģŃ": 2434,
      "ãģ¾ãģŁãģŃãģ£": 2435,
      "ãģ«ãģªãģ£ãģ¦": 2436,
      "ãģ«ãģĬãĤĦãĤĬ": 2437,
      "ãģ«ãģĬåº§ãĤĬ": 2438,
      "ãģ«ãģ¤ãģĦãģ¦ãģĵãģĦ": 2439,
      "ĠæĪ»ãģ£ãģ¦ãģĬãģĦãģ§": 2440,
      "ĠæĪĲåĬ": 2441,
      "ĠæīĭãĤĴæ´ĹãģĦãģªãģķãģĦ": 2442,
      "Ġæīĭãģ¯ç©º": 2443,
      "ĠæĶ¾ãģ£ãģ¦ãģĬãģĳ": 2444,
      "ĠæĶ¾ãģ£ãģ¦ãģĬãģįãģªãģķãģĦãĤĪ": 2445,
      "ĠæķĻãģĪãģ¦ãĤĪ": 2446,
      "Ġè¾ĽãģĦ": 2447,
      "Ġè¾ĽæĬ±": 2448,
      "Ġè¦ĭãģªãģĦãģ§": 2449,
      "Ġè¦ĭãģĽãģ¦": 2450,
      "ĠãĥĪãĥłãĤĴåĳ¼ãĤĵãģ§": 2451,
      "ĠãĥĪãĥłãĤĴåĬ©ãģĳãģ¦ãĤĦãģ£ãģ¦": 2452,
      "ãĤĴå¤±ãģĦãģ¾ãģĹãģŁ": 2453,
      "ãģĮåĩºãģ¡ãĤĥãģ£ãģŁ": 2454,
      "ĠãĤĨãģ£ãģıãĤĬé£Łãģ¹ãģ¦": 2455,
      "Ġç§ģãģ¯æ°Ĺãģ¥ãģĦãģŁ": 2456,
      "Ġç§ģãģ¯æ°ĹãĤĴå¤±ãģĦãģ¾ãģĹãģŁ": 2457,
      "Ġç§ģãģ¯ãģĿãģĨãģ¯æĢĿãģĦãģ¾ãģĽãĤĵ": 2458,
      "Ġç§ģãģ¯ãģĿãģĨè¨ĢãģĦãģ¾ãģĹãģŁ": 2459,
      "ĠéĸĭãģĳãĤį": 2460,
      "Ġéĸĭãģĳãģ¦": 2461,
      "ĠéĽ¢ãĤĮãĤį": 2462,
      "ĠéĽ¢ãĤĮãģ¦ãģ¦": 2463,
      "Ġå½¼ãģĮèµ°ãģ£ãģŁ": 2464,
      "Ġå½¼ãģĮãĤĦãģ£ãģ¦ãģ¿ãĤĭãĤĵãģł": 2465,
      "Ġå½¼ãĤĴæįķãģ¾ãģĪãĤį": 2466,
      "Ġå½¼ãĤĴæįķãģ¾ãģĪãģ¦": 2467,
      "å¤±ç¤¼ãģ§ãģĻãģĮ": 2468,
      "ĠãĥĪãĥłãģ¯çŁ¥ãģ£ãģŁ": 2469,
      "ĠãĥĪãĥłãģ¯çŁ¥ãģ£ãģ¦ãģĦãĤĭ": 2470,
      "ĠãĥĪãĥłãģ¯åĺĺãĤĴãģ¤ãģı": 2471,
      "ĠãĥĪãĥłãģ¯åĺĺãĤĴãģ¤ãģĦãģŁ": 2472,
      "ĠãĤĦãģ£ãģ¦ãĤĦãģ£ãģŁ": 2473,
      "ĠãĤĦãģ£ãģ¦ãģ¯ãģ¿": 2474,
      "Ġå½¼ãģ¯ç¬ĳãģ£ãģŁ": 2475,
      "Ġå½¼ãģ¯ç¬ĳãģ£ãģ¦ãģĦãģŁ": 2476,
      "ĠãģĿãģĵãģ£ãģ¦éģ": 2477,
      "ĠãģĿãģĵãģ«ãģĬåº§ãĤĬ": 2478,
      "ĠãģĤãĥ¼ãĤĵãģĹãģ¦": 2479,
      "ĠãģĤãģıãģ³ãĤĴãģĹãģŁ": 2480,
      "ĠãģĤãģıãģ³ãģĮåĩºãģ¡ãĤĥãģ£ãģŁ": 2481,
      "ĠãģĻãģĲæĿ¥ãģ¦": 2482,
      "ĠãģĻãģĲåĩºçĻº": 2483,
      "Ġå¤±æķ¬ãģª": 2484,
      "Ġå¤±æķĹãģĹãģŁ": 2485,
      "Ġãģ©ãģªãģŁãģķãģ¾ãģ§ãģĹãĤĩãģĨ": 2486,
      "Ġä¿¡çĶ¨ãģĹãģ¦ãģıãģłãģķãģĦ": 2487,
      "Ġä¿¡ãģĺãģ¦ãģıãĤĮ": 2488,
      "ĠãĥĪãĥłãģ¯æīĭãĤĴãģµãģ£ãģŁ": 2489,
      "ĠãĥĪãĥłãģ¯æīĭãĤĴæĮ¯ãģ£ãģŁ": 2490,
      "ĠãĥĪãĥłãģ¯æ³³ãģĦãģł": 2491,
      "ĠãĥĪãĥłãģ¯æ³³ãģĦãģ§ãģĦãĤĭ": 2492,
      "ĠãĥĪãĥłãģ«èģŀãģĦãģ¦ãģĶãĤīãĤĵ": 2493,
      "ĠãĤĤãģĨæŃ¢ãĤģãģ¦": 2494,
      "ĠãĤĤãģĨæŃ»ãģ«": 2495,
      "åħ¥ãģ£ãģ¦åħ¥ãģ£ãģ¦": 2496,
      "Ġä¸ĬåĩºæĿ¥": 2497,
      "Ġä¸Ĭè¨ĺãĤĴ": 2498,
      "Ġç§ģãģ¯æ³³ãģĴãģ¾ãģĻ": 2499,
      "Ġç§ģãģ¯æ³³ãģĲãģĵãģ¨ãģĮåĩº": 2500,
      "Ġç§ģãģ¯æĢĴãģ£ãģŁãĤĵãģł": 2501,
      "Ġç§ģãģ¯æĢĴãĤĬçĭ": 2502,
      "Ġç§ģãģĮæīķãģĦãģ¾ãģĻ": 2503,
      "Ġç§ģãģĮæīķãģĦãģ¾ãģĹãĤĩãģĨ": 2504,
      "ãģĵãģ¨ãģĮãģ§ãģįãĤĭ": 2505,
      "æŃ³ãģ§ãģĻ": 2506,
      "æŃ³ãģ§ãģĻãģĭ": 2507,
      "é£Ľãģ¹ãĤĭãĤĵãģł": 2508,
      "Ġãģ©ãģĨãģĹãģ¦ç§ģãģªãģ®": 2509,
      "Ġãģ©ãģĨãģĹãģ¦ãĥĢãĥ¡ãģªãģ®": 2510,
      "Ġãģ©ãģĨãĤĤå¤±ç¤¼": 2511,
      "ä»ķäºĭãģ¯": 2512,
      "ĠåĲĮæĦıãģĻãĤĭ": 2513,
      "ĠåĲĮæĦŁãģ§ãģĻ": 2514,
      "ĠåĲĽãģĮéģĭè»": 2515,
      "ĠåĲĽãģĮèµ°ãĤĮ": 2516,
      "Ġé£Łãģ¹ãģ¾ãģĹãĤĩãģĨ": 2517,
      "Ġé£Łãģ¹ãģ¦ãĤĤ": 2518,
      "åĬłãģķãģĽãģ¦": 2519,
      "Ġï¼ĳï¼ĺ": 2520,
      "Ġï¼ĳï¼Ļ": 2521,
      "Ġç§ģãģ®è³ªå": 2522,
      "Ġç§ģãģ®è²łãģĳãģł": 2523,
      "Ġç§ģãĤĤãģĿãģĨãģ§ãģĻ": 2524,
      "Ġç§ģãĤĤãģĿãģĨé¡ĺãģĦãģ¾ãģĻ": 2525,
      "æĸ°åĵ": 2526,
      "ĠãĤĦãģ£ãģ¦ãģ¿ãĤĪãģĨãĤĪ": 2527,
      "ç§ģãģ®ãģ§ãģĻ": 2528,
      "èªįãģĹãģ¦ãģ¿ãģ¦": 2529,
      "ĠãĤ¹ãĥĶãĥ¼": 2530,
      "ĠãĤ¹ãĥĪãĥĥãĥĹ": 2531,
      "ĠãĤ¹ãĤŃãĥ¼ãģ¯æ»ĳ": 2532,
      "ĠãĤ¹ãĤŃãĥ¼ãģĮãģ§ãģįãģ¾ãģĻ": 2533,
      "ĠéĢ²ãĤģ": 2534,
      "ĠéĢ²ãĤĵãģ§": 2535,
      "Ġçĸ²ãĤĮãģŁãģªãģĤ": 2536,
      "Ġçĸ²ãĤĮãģŁãģªãģģ": 2537,
      "Ġãģ¯ãģĦãģ©ãģĨãģŀ": 2538,
      "Ġå¾ĮãĤįãĤĴè¦ĭãĤį": 2539,
      "Ġå¾ĮãĤĴãģ¤ãģĳãĤį": 2540,
      "Ġçģ«äºĭãģł": 2541,
      "ĠæĮģãģ£ãģ¦ãģĦãģ¾ãģĻ": 2542,
      "ĠæĮģãģ£ãģ¦ãģŁãĤĪ": 2543,
      "Ġèµ°ãĤĮãĤĭãĤĪ": 2544,
      "ĠãģĵãĤĮãĤĴèªŃãĤĵãģ§": 2545,
      "ĠãģĵãĤĮãĤĴèªŃãģ¿ãģªãģķãģĦ": 2546,
      "åº§ãģ£ãģ¦ãĤį": 2547,
      "Ġæ¥½ãģĹãĤĵãģ§ãģŃ": 2548,
      "Ġæ¥½ãģĹãĤĵãģ§ãģįãģªãģķãģĦ": 2549,
      "åĦĢãĤĪãģıãģĹãģªãģķãģĦ": 2550,
      "éĿ¢çĽ®": 2551,
      "éłŃãģĦãģĦ": 2552,
      "ĠåĨ·éĿĻãģ«èĢ": 2553,
      "ĠãĥĪãĥ©ãĤ¤ãģĹãģ¾ãģĻ": 2554,
      "ĠãĥĪãĥ©ãĤ¤ãģĹãģ¦ãģ¿ãĤĭ": 2555,
      "ĠãĥĪãĥłãģ¯æĮĳæĪ¦ãģĹãģŁ": 2556,
      "ĠãĥĪãĥłãģ¯æĮĳæĪ¦ãģĻãĤĭ": 2557,
      "ä¸Ģç·Ĵãģ«æĿ¥ãģĦãĤĪ": 2558,
      "ĠãģĦãģĦåŃĲãģ«ãģĹãģªãģķãģĦ": 2559,
      "ĠãģĦãģĦåŃĲãģ«ãģĹãģ¨": 2560,
      "ĠãģªãĤĭãģ»ãģ©ãģŃ": 2561,
      "Ġéģĵãģ«è¿·ãģ£ãģ¦ãģĹãģ¾ãģ£ãģŁ": 2562,
      "Ġéģĵãģ«è¿·ãģ£ãģ¦ãģĹãģ¾ãģĦãģ¾ãģĹãģŁ": 2563,
      "¡ãĤĴãģ¡ãĤĩ": 2564,
      "£ãģłãģŃ": 2565,
      "¥ãģļãģĭãģĹãģĮ": 2566,
      "§åĪĩãģ«": 2567,
      "§ãĤ¯ãĥĪ": 2568,
      "¨ãģ¿çī": 2569,
      "©ãĤĴãģĻãĤĭ": 2570,
      "¬ãĥĵãģłãĤĪ": 2571,
      "®ĺãģł": 2572,
      "±ãģĹãĤĴ": 2573,
      "±ãģ®èº«ãģł": 2574,
      "²ãģĿãģĨãģĹãĤĪãģĨ": 2575,
      "´ãģĪãģ¦ãĤĭ": 2576,
      "¼ãģ¿æĢĿæ¡Ī": 2577,
      "ä¿¡ãģĹãģ¦ãģĦãĤĭ": 2578,
      "å«ĮãĤĴãģ¨": 2579,
      "å¸³éĿ¢ãģªãĤĵãģł": 2580,
      "æĤŁãģĮ": 2581,
      "æĽ²ãģĮãģ£ãģ¦": 2582,
      "æ½Ķãģł": 2583,
      "æ©Łå«ĮãĤĴãģ¨": 2584,
      "æ¸Ľãģ«ãģĹãĤįãĤĪ": 2585,
      "çħ§ãģ®ãģĵãģ¨": 2586,
      "çĲĨãģĻãĤĭ": 2587,
      "çĴ§": 2588,
      "çĸĳãģ£ãģŁ": 2589,
      "çŃĶãģĪ": 2590,
      "é¹¿ãģª": 2591,
      "ĠãĢĮ": 2592,
      "ĠãĤĪãģĨãģĵãģĿ": 2593,
      "ĠãģĦãģ£ãģĹãĤĩãģ«æĿ¥ãģªãģķãģĦ": 2594,
      "Ĥãģ£ãģ¦ãģĦãģŁãĤĵãģł": 2595,
      "ĥãģĴãģŁ": 2596,
      "ĥãģĪãģ¦è¦ĭãĤįãĤĪ": 2597,
      "ħãĥ¼ãģĹãģ¦": 2598,
      "ĪãģĹãģ¡ãĤĥãģ£ãģŁãĤĪ": 2599,
      "ĵãĤĴå¤§åĪĩãģ«": 2600,
      "ķãĤ§ãĤ¯ãĥĪ": 2601,
      "ķıãģ«çŃĶãģĪ": 2602,
      "Ĺãģłãģ£ãģŁ": 2603,
      "ĹãģŃãģĩãĥ¼": 2604,
      "ĺåľ¨ãģĻãĤĭ": 2605,
      "ĽãģĹãģ¦ãģĬãĤĬãģ¾ãģĻ": 2606,
      "Ľ¸ãģįãģªãĤĪ": 2607,
      "ľãģ£ãģŁãĤĵãģ§ãģĻ": 2608,
      "ŁãģĻãĤĭãĤĪ": 2609,
      "łãģĦãģ§ãģĻãģĭ": 2610,
      "ãĤ¸ãĥ£ãĥ³ãĥĹãģ§ãģįãĤĭãĤĪ": 2611,
      "ãĤĢãģĵãģ¨ãģĮãģ§ãģįãģ¾ãģĻ": 2612,
      "ï¼ĳï¼ķ": 2613,
      "ï¼Ķï¼ķ": 2614,
      "ãĥĲãĤ«ãģª": 2615,
      "Ġãģ¤ãģĦãģ¦ãģįãģ¦": 2616,
      "Ġãģ«ãģ£ãģĵãĤĬ": 2617,
      "ĠãģµãģĸãģĳãģªãģĦãģ§": 2618,
      "ĠãģİãĤħãĥ¼ãģĹãģ¦": 2619,
      "Ġãģľãģ²ãģĿãģĨãģĹãĤĪãģĨ": 2620,
      "ĠåĺĺãĤĴãģ¤ãģıãģª": 2621,
      "ĠåĪĩãĤīãģªãģĦãģ§": 2622,
      "Ġå¿ĻãģĹãģĦãģ§ãģĻ": 2623,
      "Ġåĭĩæ°ĹãĤĴåĩº": 2624,
      "Ġå¼ķãģ£è¾¼ãĤĵãģ§ãģ¦": 2625,
      "Ġå¦Ļãģłãģª": 2626,
      "Ġå®ĮçĴ§": 2627,
      "Ġå°ĳãģĹéĿĻãģĭãģ«": 2628,
      "Ġå·¦ãģ«æĽ²ãģĮãģ£ãģ¦": 2629,
      "Ġå¹³æ°ĹãģłãĤĪ": 2630,
      "ĠåºĬãģ«ä¼": 2631,
      "ĠåĪ©åı£ãģłãģŃ": 2632,
      "Ġåīįè¿°åıĤ": 2633,
      "Ġåĳ¨ãĤĬãģ®äºº": 2634,
      "ĠåĽ³æĺŁãģ§ãģĻ": 2635,
      "ãģ¯åŃĺåľ¨ãģĻãĤĭ": 2636,
      "ãģĹä¸ĭãģķãģĦ": 2637,
      "ãģŁãģĹãģªãģ®": 2638,
      "ĠçŁ¥ãĤĭãĤĤ": 2639,
      "Ġç¬ĳãģ£ãģ¡ãĤĥãģ£ãģŁ": 2640,
      "Ġç¢ºãģĭãģłãĤĪ": 2641,
      "ĠçľłãģĦ": 2642,
      "Ġç¥ŀãģ¯åŃĺåľ¨ãģĻãĤĭ": 2643,
      "Ġç²¾ä¸ĢæĿ¯": 2644,
      "Ġçīĩä»ĺãģĳãģªãģķãģĦãĤĪ": 2645,
      "ĠçļĨãģķãĤĵãģĬä¹Ĺ": 2646,
      "ĠçľŁéĿ¢çĽ®": 2647,
      "ãģ§ãģįãģ¦ãģĦãĤĭ": 2648,
      "ãģ«å¸°ãģ£ãģ¦æĿ¥ãģªãģķãģĦ": 2649,
      "Ġç§ģãģ¨çµĲå©ļ": 2650,
      "Ġç§ģéģĶãģ¨ä¸Ģç·Ĵ": 2651,
      "Ġç§ģãģ«ãģ¤ãģĦãģ¦ãģįãģ¦": 2652,
      "Ġç§ģãģ£ãģ¦åĨ´ãģĪãģ¦ãĤĭ": 2653,
      "Ġæ³£ãģĭãģªãģĦãģ§": 2654,
      "ĠæīķãģĦãģ¾ãģĹãģŁ": 2655,
      "Ġæ´Ĺãģ£ãģ¦ãģįãģ¦": 2656,
      "ĠæºĢãĤ¿ãĥ³ãģ«ãģĹãģ¦ãģıãģłãģķãģĦ": 2657,
      "Ġæįķãģ¾ãģĪãģŁ": 2658,
      "Ġæ®ĭå¿µãģª": 2659,
      "Ġæ¿¡ãĤĮãģ¡ãĤĥãģ£ãģŁ": 2660,
      "Ġæļĩãģ§ãģĻãĤĪ": 2661,
      "Ġæ··ãģľãģ¦": 2662,
      "ĠæĦıè¦ĭãģĮä¸Ģ": 2663,
      "ĠæĬ¼ãģĻãģªãĤĪ": 2664,
      "ĠæĸĩçĦ¡ãģĹãģªãĤĵãģł": 2665,
      "ĠãĥĢãĥ¡ãģłãģ£ãģ¦è¨Ģ": 2666,
      "ĠãĥĲãĤ¤ãĥĲãĤ¤": 2667,
      "Ġãĥªãĥ©ãĥĥãĤ¯ãĤ¹ãģĹãģ¦": 2668,
      "Ġãĥªãĥĥãĥģãģ§ãģĻ": 2669,
      "Ġãĥ¯ãĤ©": 2670,
      "Ġãĥıãĥ¼ãĤ¤": 2671,
      "ĠãĥĲãĥĥãĥģãĥª": 2672,
      "Ġãĥĳãĥ¼ãĥķãĤ§ãĤ¯ãĥĪ": 2673,
      "ĠãĥĻãĥĥãĥīãģ¸ãģĦãģĳ": 2674,
      "Ġè§¦ãĤĭãģª": 2675,
      "Ġè¨±ãģĹãģ¦": 2676,
      "Ġè«¦ãĤģãĤį": 2677,
      "Ġè¬ĿãĤĬãģªãģķãģĦ": 2678,
      "Ġè¶ħèĩŃãģĦãĤĪ": 2679,
      "Ġè¿ĳãģ¥ãģıãģª": 2680,
      "ĠãĥĪãĥłãģ®æ©Łå«ĮãĤĴãģ¨": 2681,
      "ĠãĥĪãĥłãĤĴè¦ĭãģ¤ãģĳãģ¦": 2682,
      "ãĤĴåıĸãģ£ãģ¦ãģĦãĤĭ": 2683,
      "ãĤĴç¢ºä¿¡ãģĹãģ¦ãģĦãĤĭ": 2684,
      "ãģĭåĪĨãģĭãĤĭ": 2685,
      "ãģĮãĤīãģ©ãģĨãĤĤãģĿãģĨ": 2686,
      "ĠãĤ«ãĥĥãĤ³ãģĦãģĦ": 2687,
      "ĠãĤ¯ãĤ¿ãĤ¯ãĤ¿": 2688,
      "ĠãĤ¿ãĥĢãģ§ãģĻãĤĪ": 2689,
      "Ġç§ģãģ¯è¡ĮãģĭãĤĮãģ¾ãģĽãĤĵ": 2690,
      "Ġç§ģãģ¯ãĤĦãĤģãģ¾ãģĻ": 2691,
      "Ġç§ģãģ¯ä¸Ģäººãģł": 2692,
      "Ġç§ģãģ¯è¡Įãģĳãģ¾ãģĽãĤĵ": 2693,
      "Ġç§ģãģ¯çŁ¥ãĤīãģªãģĦ": 2694,
      "Ġç§ģãģ¯ãĥĪãĥłãģ§ãģĻ": 2695,
      "Ġç§ģãģ¯ãģ¤ãģĦãģ¦ãģĦãĤĭ": 2696,
      "Ġç§ģãģ¯çĸ²ãĤĮãģŁ": 2697,
      "Ġç§ģãģ¯è¦ļæĤŁãģĮ": 2698,
      "Ġç§ģãģ¯ãģĵãģĵãģ§é£Łãģ¹ãģ¾ãģĻ": 2699,
      "Ġç§ģãģ¯éĢļãĤĬãģ¾ãģĻ": 2700,
      "Ġç§ģãģ¯ãģĿãĤĮãĤĴçĸĳãģ£ãģŁ": 2701,
      "Ġç§ģãģ¯èµ°ãĤĭãģĵãģ¨ãģĮãģ§ãģįãĤĭ": 2702,
      "Ġç§ģãģ¯ç¬ĳãģ£ãģ¦ãģĹãģ¾ãģ£ãģŁ": 2703,
      "Ġç§ģãģ¯éħĶãģ£ãģ¦ãģĦãģªãģĦ": 2704,
      "Ġç§ģãģ¯ãģŁãģ°ãģĵãĤĴå": 2705,
      "ĠéĻįåıĤãģĹãģ¾ãģĻ": 2706,
      "ĠéĽ»è©±ãģĹãģ¦ãģŃ": 2707,
      "Ġé¡Ķãģ¨æīĭãĤĴæ´ĹãģĦãģªãģķãģĦ": 2708,
      "Ġé¦¬é¹¿ãģª": 2709,
      "Ġéĩĳæ¬łãģªãĤĵãģł": 2710,
      "ĠéįµãĤĴéĸĭãģĳãĤį": 2711,
      "ĠéļłãĤĮãĤį": 2712,
      "ãģįãģĤãģĮãģ£ãģŁ": 2713,
      "ä¸ĬãģĴãģł": 2714,
      "ãģ¨ãģĦãģ£ãģ¦ãģıãģłãģķãģĦ": 2715,
      "Ġå½¼ãģ®äºĭãģ¯å¿ĺ": 2716,
      "Ġå½¼ãĤīãģ«èģŀãģįãģªãģķãģĦ": 2717,
      "Ġå½¼ãĤĴè¦ĭãģŁ": 2718,
      "ãĤĬè¨ĢãģĦãģªãģķãģĦ": 2719,
      "ãĤĬå±ĭãģ§ãģĻ": 2720,
      "å¤ªãģ£ãģ¦ãĤĭãģĭãģª": 2721,
      "ĠãĥĪãĥłãģ¯ãģĬè¾ŀåĦĢ": 2722,
      "ĠãĥĪãĥłãģ¯ãĤĦãĤģãģŁ": 2723,
      "ĠãĥĪãĥłãģ¯é£²ãĤĵãģł": 2724,
      "ĠãĥĪãĥłãģ¯å¼ķãģ£è¶Ĭ": 2725,
      "ĠãĥĪãĥłãģ¯ç¤¼ãĤĴãģĹãģŁ": 2726,
      "ĠãĥĪãĥłãģ¯é£Łãģ¹ãģŁ": 2727,
      "ĠãĥĪãĥłãģ¯ç·¨ãģ¿çī": 2728,
      "ĠãĥĪãĥłãģ¯ç«ĭãģ£ãģŁ": 2729,
      "ĠãĥĪãĥłãģ¯éĢĥãģĴãģŁ": 2730,
      "ĠãĥĪãĥłãģ¯å¯Ŀãģ¦ãģĦãģŁ": 2731,
      "ĠãĥĪãĥłãģ¯éģĭè»¢ãģĹãģŁ": 2732,
      "ĠãĥĪãĥłãģ¯åĭķãģĦãģŁ": 2733,
      "ĠãĥĪãĥłãģ¯çľłãģ£ãģ¦ãģĦãģŁ": 2734,
      "ĠãĥĪãĥłãģ¯èĲ½ãģ¡ãģŁ": 2735,
      "ĠãģĬè¡ĮåĦĢãĤĪãģıãģĹãģªãģķãģĦ": 2736,
      "ĠãģĬãĤĤãģ¡ãĤĥ": 2737,
      "ĠãģĬè¨±ãģĹãĤĴ": 2738,
      "ĠãģĬä½ĵãĤĴå¤§åĪĩãģ«": 2739,
      "ĠãģĬãģ¾ãģĪãģ®åĭĿãģ¡ãģł": 2740,
      "ĠãģĬæīĭä¸ĬãģĴãģł": 2741,
      "ĠãģĬæīĭä¼ĿãģĦãģĹãģ¾ãģĻãĤĪ": 2742,
      "ĠãģĬéĽ»è©±ãģıãģłãģķãģĦ": 2743,
      "ĠãģĬåħĪãģ«ãģ©ãģĨãģŀ": 2744,
      "ĠãģĬå¾ħãģ¡ãģıãģłãģķãģĦ": 2745,
      "ĠãģĬèĮ¶ãģ§ãģĻ": 2746,
      "ĠãģĬãģĦãģĬãģĦ": 2747,
      "Ġãģĵãģ¡ãĤīãģ«æĿ¥ãģªãģķãģĦ": 2748,
      "è¡Įãģ£ãģ¨ãģĦãģ§": 2749,
      "Ġä¹ĹãĤĮãĤĪ": 2750,
      "ĠäºĨè§£": 2751,
      "Ġä¼ıãģĽãģ¦": 2752,
      "ãģĦãģ¦ãģĦãģ¾ãģĻãĤĪ": 2753,
      "ĠãĤĦãģ£ãģ»ãĥ¼": 2754,
      "Ġå½¼ãģ¯è¦ªåĪĩãģªäººãģ§ãģĻ": 2755,
      "Ġå½¼ãģ¯ãģĦãģĦäººãģ§ãģĻ": 2756,
      "Ġå½¼ãģ¯ä¸Ģæĸĩãģª": 2757,
      "Ġå½¼ãģ¯ãĥĪãĥłãģ§ãģĻãģĭ": 2758,
      "Ġå½¼ãģ¯åĺĺãĤĴãģ¤ãģĦãģ¦ãģĦãĤĭ": 2759,
      "Ġå½¼ãģ¯éĽ»è©±ãĤĴåĪĩ": 2760,
      "Ġå½¼ãģ¯æĪĲåĬŁãģĹãģŁ": 2761,
      "Ġå½¼ãģ¯å¹´ãĤĴåıĸãģ£ãģ¦ãģĦãĤĭ": 2762,
      "Ġå½¼ãģ¯éłŃãģĮãģĦãģĦ": 2763,
      "Ġå½¼ãģ¯ãģĨãģĿãĤĴãģ¤ãģĦãģ¦ãģĦãĤĭ": 2764,
      "Ġå½¼ãģ¯å¤ĸé£ŁãģĹãģŁ": 2765,
      "ĠãģĿãĤĵãģªãĥĲãĤ«ãģª": 2766,
      "ĠãģĿãģ®ãģĵãģ¨ãĤĴç¢ºä¿¡ãģĹãģ¦ãģĦãĤĭ": 2767,
      "ĠãģĤãģĸãģ£ãģĻ": 2768,
      "ĠãģĤãģ£ãģŁãģĭãģıãģĹãģ¦ãģªãģķãģĦ": 2769,
      "ĠãģĤãģĤæģĲãģĦ": 2770,
      "ĠåĥķãģĮæīķãģ£ãģ¨ãģĵãģĨ": 2771,
      "Ġåĥķãģ®ãģĬãģĶãĤĬãģ§ãģĻãĤĪ": 2772,
      "ĠãģĻãģ¿ãģ¾ãģĽãĤĵãģ§ãģĹãģŁ": 2773,
      "Ġå¤±ç¤¼ãģĹãģ¾ãģĹãģŁ": 2774,
      "Ġå¤§äººãģĹãģıå¾ħãģ£ãģ¦": 2775,
      "Ġå¤ªãĤīãģªãģĦãĤĪãģĨãģ«": 2776,
      "Ġå¤īãĤıãĤĬãģªãģĦ": 2777,
      "Ġå¤ĸãģ«åĩºãĤį": 2778,
      "Ġãģ©ãģ®ãģıãĤīãģĦæ·±ãģĦ": 2779,
      "Ġç§ģãģ¯åĭĩæķ¢ãģł": 2780,
      "Ġç§ģãģ¯å¼ķãģ£è¾¼ãģ¿æĢĿæ¡Ī": 2781,
      "Ġç§ģãģ¯åħ¬å¹³ãģł": 2782,
      "Ġç§ģãģ¯åĩłå¸³éĿ¢ãģªãĤĵãģł": 2783,
      "Ġç§ģãģ¯åĲĮæĦıãģĻãĤĭãģłãĤį": 2784,
      "ĠãĤĦãĤģãģ¡ãĤĥãĥĢãĥ¡": 2785,
      "ĠãĥĪãĥłãģ¯æīķãģ£ãģŁ": 2786,
      "ĠãĥĪãĥłãģ¯æĸĻçĲĨãģĻãĤĭ": 2787,
      "Ġä¿ºãģŁãģ¡ãģ«ãģ¤ãģĦãģ¦ãģĵãģĦ": 2788,
      "ĠãĥĪãĥłãģ«ä¼ĿãģĪãģ¦": 2789,
      "ĠãĥĪãĥłãģ«æķĻãģĪãģ¦": 2790,
      "ĠãĥĪãĥłãģ«ä¼ļãģ£ãģ¦ãģįãģ¦": 2791,
      "ĠãĥĪãĥłãģ«æīĭç´ĻãĤĴæ": 2792,
      "ĠãĥĪãĥłãģ«å¾ĵãģĪ": 2793,
      "ĠãģĵãĤĮåıĸãģ£ãģ¦ãģĬãģĦãģ¦": 2794,
      "ĠãģĵãĤĮéģĭãĤĵãģ§": 2795,
      "ĠãģĵãĤĮç¢ºèªįãģĹãģ¦ãģ¿ãģ¦": 2796,
      "ĠãģĵãĤĮæĮģãģ£ãģ¦": 2797,
      "ĠãģĵãĤĮãģĮæ¬²ãģĹãģĦ": 2798,
      "Ġãģĵãģĵãģ«ãģĤãĤĬãģ¾ãģĻ": 2799,
      "ĠãģĿãĤĮå¥½ãģį": 2800,
      "ĠãģĿãĤĮãģ§ãģĦãģĦãĤĪ": 2801,
      "ĠãģĿãĤĮãģĮä»ķäºĭãģ§ãģĻ": 2802,
      "ĠãĤĤãģĨéģħãģĦãĤıãĤĪ": 2803,
      "ĠãĤĤãģĨå¯ĿãģªãģķãģĦ": 2804,
      "ĠãģķãģĤãģ©ãģĨãģŀãģĬåħ¥ãĤĬãģıãģłãģķãģĦ": 2805,
      "ĠãģķãģĤä¹Ĺãģ£ãģ¦": 2806,
      "Ġæ°Ĺãģ«åħ¥ãģ£ãģ¦ãģ¾ãģĻ": 2807,
      "Ġèª°ãģ«ãĤĤåĪĨãģĭãĤīãģªãģĦãĤĪ": 2808,
      "Ġç§ģãģ¯æ®ĭãĤĮãģ¾ãģĻ": 2809,
      "Ġç§ģãģ¯æ½ĶçĻ½ãģł": 2810,
      "Ġç§ģãģ¯æļĩãģł": 2811,
      "Ġç§ģãģ¯æ¸ħæ½Ķãģł": 2812,
      "Ġç§ģãģ¯æĭįæīĭãģĹãģŁ": 2813,
      "ĠåĩºçĻºãģĹãģŁ": 2814,
      "Ġç§ģãģĮä½ľãģ£ãģŁãĤĵãģ§ãģĻ": 2815,
      "Ġç§ģãģĮä½¿ãģ£ãģ¦ãģ¾ãģĻ": 2816,
      "Ġç§ģãģĮå£ĬãģĹãģŁ": 2817,
      "Ġç§ģãģĮä¸Ģçķª": 2818,
      "Ġè¡Įãģĭãģªãģıãģ¡ãĤĥ": 2819,
      "Ġè¡ĮãģĳãĤĭãģĭãģª": 2820,
      "ĠåĭĿãģ¦ãĤĭãģķ": 2821,
      "ĠãģĤãĤĬå¾ĹãģŃãģĩãĥ¼": 2822,
      "ĠãģĦãģĦåĬłæ¸Ľãģ«ãģĹãĤįãĤĪ": 2823,
      "ĠæĤ²æĥ¨": 2824,
      "ĠãģĿãģĨæĢĿãģĦãģ¾ãģĻ": 2825,
      "ĠãģĿãģĨãģĦãģĨãģĵãģ¨": 2826,
      "ĠãģĿãģĨãģłãģ¨ãģĦãģĦãģĳãģ©": 2827,
      "ĠãģĿãģĨè¨Ģãģ£ãģ¦ãģĬãģĦãģŁãģ¯ãģļãģł": 2828,
      "ĠãģĵãĤĵãģ«ãģ¡ãģ¯ãĥĪãĥłãģķãĤĵ": 2829,
      "ãĤ¯ãĥĵãģ§ãģĻãģĭ": 2830,
      "ĠãģªãģľãģĦãģĳãģªãģĦãģ®": 2831,
      "Ġãģ¾ãģĤè¡Įãģ£ãģ¦ãģ¿ãĤĪãģĨ": 2832,
      "Ġçĸ²ãĤĮãģ¦ãģĦãĤĭãĤĵãģł": 2833,
      "Ġç§ģãģ®è¨Ģãģ£ãģ¦ãĤĭãģĵãģ¨": 2834,
      "Ġç§ģãģ®ãģĬãģĶãĤĬãģł": 2835,
      "Ġç§ģãĤĤåıĤåĬłãģķãģĽãģ¦": 2836,
      "Ġç§ģãĤĤãĤĤãģĨå¹´ãģł": 2837,
      "Ġç§ģãĤĤåħ¥ãĤĮãģ¦ãģıãģłãģķãģĦ": 2838,
      "Ġç§ģãģ¯èŃ¦å®ĺãģł": 2839,
      "Ġç§ģãģ¯èªŃãĤĢãģĵãģ¨ãģĮãģ§ãģįãģ¾ãģĻ": 2840,
      "Ġç§ģãģ¯è²§ä¹ıãģ§ãģĻ": 2841,
      "Ġç§ģãģ¯èĩªçĶ±ãģ®èº«ãģł": 2842,
      "Ġä»²éĸĵãģ«ãģªãģ£ãģ¦": 2843,
      "Ġä»ĬãģĻãģĲãģĿãĤĮãĤĴ": 2844,
      "Ġä½ķãģ§ãĤıãģŁãģĹãģªãģ®": 2845,
      "Ġä½ķãģ«ä½¿ãģĨãģ®": 2846,
      "Ġä½ķãģĮèµ·ãģĵãģ£ãģŁãĤĵãģł": 2847,
      "Ġä½ķãģ®ãģŁãĤģãģ«": 2848,
      "Ġä½ķè¨Ģãģ£ãģ¦ãģĦãĤĭãģĭåĪĨãģĭãĤĭ": 2849,
      "Ġåĥķãģ¯å¿ĻãģĹãģĦ": 2850,
      "Ġåĥķãģ¯èµ·ãģįãģĤãģĮãģ£ãģŁ": 2851,
      "Ġåĥķãģ¯èĭ¥ãģĦ": 2852,
      "Ġåĥķãģ¯ãĥªãĥ©ãĥĥãĤ¯ãĤ¹ãģĹãģŁ": 2853,
      "Ġèª°ãģĮè¡Įãģıãģ®": 2854,
      "Ġèª°ãģĮèµ°ãģ£ãģŁãģ®": 2855,
      "Ġèª°ãģĮåĭĿãģ£ãģŁãģ®": 2856,
      "Ġèª°ãģĮæĿ¥ãģ¾ãģĹãģŁãģĭ": 2857,
      "Ġèª°ãģĮæŃ»ãĤĵãģłãģ®": 2858,
      "ĠæŃ¢ãģ¾ãĤĮ": 2859,
      "ĠæŃ»ãģªãģªãģĦãģ§": 2860,
      "ĠæŃĮãģĮæŃĮãģĪãĤĭ": 2861,
      "ĠãĥĪãĥłãĤĴæ®´ãĤĮ": 2862,
      "ĠãĥĪãĥłãĤĴæİ¢ãģĹãģ¦ãģįãģ¦": 2863,
      "ĠãĥĪãĥłãĤĴæŃ¢ãĤģãĤĭãĤĵãģł": 2864,
      "Ġå½¼ãĤīãģ¯åĺĺãĤĴãģ¤ãģĦãģŁ": 2865,
      "Ġå½¼ãĤīãģ¯åİ»ãģ£ãģŁ": 2866,
      "Ġå½¼ãĤīãģ¯æ³³ãģĦãģł": 2867,
      "Ġä¿ºãģ¯ãģĦãģĭãģĹãģ¦ãĤĭ": 2868,
      "Ġä¿ºãģ¯ãĥĩãĥĸãģł": 2869,
      "Ġä¿ºãģ¯äººéĸĵãģł": 2870,
      "Ġä¿ºãģ¯ãĤ¯ãĥ¼ãĥ«ãģł": 2871,
      "Ġä¿ºãģ¯éĸĵéģķãģ£ãģ¦ãģĦãĤĭãģ®ãģĭ": 2872,
      "ĠéłŃãĤĴä¸ĭãģĴãĤį": 2873,
      "ĠãģĿãĤĮãģ¯çĦ¡æĸĻãģ§ãģĻ": 2874,
      "ĠãģĿãĤĮãģ¯æĸ°ãģĹãģĦãģ§ãģĻ": 2875,
      "ĠãģĿãĤĮãģ¯èªįãĤģãĤĭ": 2876,
      "ĠãģĿãĤĮãģ¯ãĥĨãĥ¬ãĥĵãģłãĤĪ": 2877,
      "ĠãģĿãĤĮãģ¯å¤±æķĹãģłãģ£ãģŁ": 2878,
      "Ġé£Ľãģ³è¶ĬãģĪãĤį": 2879,
      "ĠæĹ©ãģıå®¶ãģ«å¸°ãģ£ãģ¦æĿ¥ãģªãģķãģĦ": 2880,
      "Ġãģ¡ãĤĥãĤĵãģ¨åº§ãģ£ãģ¦ãĤį": 2881,
      "Ġç´ĦæĿŁãģĻãĤĭãĤĪ": 2882,
      "ĠçĶ·ãģ«ãģªãĤĮãĤĪ": 2883,
      "ĠæĻ¯æ°Ĺãģ¯ãģ©ãģĨãģ§ãģĻãģĭ": 2884,
      "ĠæĢ¥ãģİãģªãģķãģĦ": 2885,
      "ĠæĢ¥ãģĦãģ§æĪ»ãĤĮ": 2886,
      "ĠãĥĪãĥłãģĮç¾¨ãģ¾ãģĹãģĦãĤĪ": 2887,
      "ĠéĢ£çµ¡ãĤĴãģ¡ãĤĩ": 2888,
      "ĠéĢĢå±ĪãģĹãģ¡ãĤĥãģ£ãģŁãĤĪ": 2889,
      "ĠéģħãģĻãģİãĤĭ": 2890,
      "ĠéģķãģĨãģ£ãģ¦ãģ°": 2891,
      "Ġé³¥ãģĮåĽĢãĤĭ": 2892,
      "ãģĵãģĵãģ«ãģĤãĤĭãĤĪ": 2893,
      "ĠãģĬçĸ²ãĤĮæ§ĺãģ§ãģĹãģŁ": 2894,
      "ĠãĤĤãģĨä¸ĢåĽŀãĤĦãģ£ãģ¦ãģ¿ãģ¦": 2895,
      "Ġè¡ĮãģıãĤĵãģĺãĤĥãģªãģĦ": 2896,
      "Ġæľ¬æ°Ĺãģ§è¨Ģãģ£ãģ¦ãĤĭãĤĵãģ§ãģĻ": 2897,
      "Ġå®¶ãģ«æĪ»ãģ£ãģ¦ãģįãģªãģķãģĦ": 2898,
      "Ġå®¶ãģ«ãģ¨ãģ©ãģ¾ãĤĬãģªãģķãģĦ": 2899,
      "Ġç«ĭãģ¡åħ¥ãĤĬãĤĴç¦ģãģļ": 2900,
      "Ġå½¼å¥³ãģ¯æ³£ãģĦãģŁ": 2901,
      "ãĥīãĥ«ãĤĴãĤĦãĤĭ": 2902,
      "ãĥīãĤĴèĲ½ãģ¨ãģĽ": 2903,
      "Ġãģ¯ãģ£ãģįãĤĬè¨ĢãģĦãģªãģķãģĦ": 2904,
      "ĠãģĶä¹Ĺè»Ĭé¡ĺãģĦãģ¾ãģĻ": 2905,
      "Ġå¾¡åħįãģªãģķãģĦ": 2906,
      "Ġåıįå¯¾ãģ§ãģĻ": 2907,
      "Ġçģ«ãģ¯çĩĥãģĪãĤĭ": 2908,
      "Ġç§ģãģŁãģ¡ãģ¯çĶ·ãģ§ãģĻ": 2909,
      "Ġç§ģãģŁãģ¡ãģ¯åĬªåĬĽãģĹãģ¦ãģĬãĤĬãģ¾ãģĻ": 2910,
      "ĠãĥĪãĥłãĤĴéĢ£ãĤĮãģ¦ãģįãģ¦": 2911,
      "ĠåĥķãĤīãģ¯å¾ħãģ£ãģŁ": 2912,
      "ĠåĥķãĤīãģ¯æģ¥ãģļãģĭãģĹãģĮ": 2913,
      "Ġãģĵãģĵãģ§ãĤµãĤ¤ãĥ³ãģĹãģ¦": 2914,
      "Ġãģ©ãģĨãģŀãģĬè©±ãģĹä¸ĭãģķãģĦ": 2915,
      "ĠãģªãĤĵãģ¦åı¯æĦĽãģĦãĤĵãģ§ãģĹãĤĩãģĨ": 2916,
      "Ġä»ķäºĭãĤĴè¦ĭãģ¤ãģĳãĤį": 2917,
      "ĠæĻĤéĸĵãģ¯ãģĤãĤĬãģ¾ãģĻ": 2918,
      "ĠæĻĤéĸĵãģ«éģħãĤĮãģªãģĦãģ§": 2919,
      "ĠæĻĤéĸĵçµĤäºĨ": 2920,
      "Ġé³¥ãģ¯é£Ľãģ¶": 2921,
      "Ġé³¥ãģ¯é³´ãģı": 2922,
      "Ġä¸Ģãģ¤éģ¸ãĤĵãģ§": 2923,
      "ĠãģĨãģ¾ãģıè¡Įãģ£ãģŁ": 2924,
      "ĠãģıãĤīãģıãĤīãģĻãĤĭ": 2925,
      "ĠãģĹãģıãģĺãģ£ãģŁ": 2926,
      "ĠåĦªãģĹãģıãģĹãģ¦ãģĤãģĴãģªãģķãģĦ": 2927,
      "ĠçĦ¡è¦ĸãģĹãĤį": 2928,
      "ĠæĪĲåĬŁãģł": 2929,
      "Ġæīĭãģ¯ç©ºãģĦãģ¦ãģĦãģ¾ãģĻãĤĪ": 2930,
      "Ġè¾ĽæĬ±ãģĹãģªãģķãģĦ": 2931,
      "Ġéĸĭãģĳãģ¦ãģıãĤĮ": 2932,
      "ĠãĤĦãģ£ãģ¦ãģ¯ãģ¿ãģŁ": 2933,
      "ĠãģĿãģĵãģ£ãģ¦éģłãģĦãģ§ãģĻãģĭ": 2934,
      "ĠãģĻãģĲåĩºçĻºãģĹãģªãģķãģĦ": 2935,
      "Ġãģ©ãģªãģŁãģķãģ¾ãģ§ãģĹãĤĩãģĨãģĭ": 2936,
      "Ġä¿¡ãģĺãģ¦ãģıãĤĮãĤĪ": 2937,
      "ĠãĤĤãģĨæŃ»ãģ«ãģĿãģĨ": 2938,
      "Ġä¸Ĭè¨ĺãĤĴãģĶè¦§ãģıãģłãģķãģĦ": 2939,
      "Ġç§ģãģ¯æ³³ãģĲãģĵãģ¨ãģĮåĩºæĿ¥ãģ¾ãģĻ": 2940,
      "Ġç§ģãģ¯æĢĴãĤĬçĭĤãģ£ãģ¦ãģĦãģŁãĤĵãģł": 2941,
      "ĠåĲĽãģĮéģĭè»¢ãģĹãģ¦": 2942,
      "Ġé£Łãģ¹ãģ¦ãĤĤãģĦãģĦãģ§ãģĻãģĭ": 2943,
      "Ġç§ģãģ®è³ªåķıãģ«çŃĶãģĪ": 2944,
      "æĸ°åĵģãģªãģ®": 2945,
      "ĠãĤ¹ãĥĶãĥ¼ãĥīãĤĴèĲ½ãģ¨ãģĽ": 2946,
      "ĠãĤ¹ãĥĪãĥĥãĥĹãģ£ãģ¦è¨Ģãģ£ãģ¦ãģŃ": 2947,
      "ĠãĤ¹ãĤŃãĥ¼ãģ¯æ»ĳãĤĭ": 2948,
      "ĠåĨ·éĿĻãģ«èĢĥãģĪãģ¦è¦ĭãĤįãĤĪ": 2949,
      "ĠãģĦãģĦåŃĲãģ«ãģĹãģ¨ãģįãģªãģķãģĦ": 2950,
      "Ġãģ«ãģ£ãģĵãĤĬç¬ĳãģ£ãģ¦": 2951,
      "Ġåĭĩæ°ĹãĤĴåĩºãģĹãģ¦": 2952,
      "Ġå°ĳãģĹéĿĻãģĭãģ«ãģĹãģ¦ãģĦãģªãģķãģĦ": 2953,
      "ĠåºĬãģ«ä¼ıãģĽãĤį": 2954,
      "Ġåīįè¿°åıĤçħ§ãģ®ãģĵãģ¨": 2955,
      "Ġåĳ¨ãĤĬãģ®äººãģ«èģŀãģĦãģ¦ãģ¿ãģ¦": 2956,
      "ĠçŁ¥ãĤĭãĤĤãĤĵãģĭ": 2957,
      "Ġç²¾ä¸ĢæĿ¯ãĤĦãģ£ãģ¦ãģ¿ãģªãģķãģĦ": 2958,
      "ĠçļĨãģķãĤĵãģĬä¹ĹãĤĬãģıãģłãģķãģĦ": 2959,
      "ĠçľŁéĿ¢çĽ®ãģ«ãģĬãĤĦãĤĬ": 2960,
      "Ġç§ģãģ¨çµĲå©ļãģĹãģ¦": 2961,
      "Ġç§ģéģĶãģ¨ä¸Ģç·Ĵãģ«æĿ¥ãģªãģķãģĦ": 2962,
      "Ġæ®ĭå¿µãģªãģĮãĤīãģ©ãģĨãĤĤãģĿãģĨ": 2963,
      "ĠæĦıè¦ĭãģĮä¸Ģèĩ´ãģĹãģ¦ãģĦãĤĭ": 2964,
      "ĠãĥĢãĥ¡ãģłãģ£ãģ¦è¨Ģãģ£ãģŁãģ§ãģĹãĤĩ": 2965,
      "ĠãĥĪãĥłãģ®æ©Łå«ĮãĤĴãģ¨ãĤĮ": 2966,
      "ĠãĤ¯ãĤ¿ãĤ¯ãĤ¿ãģłãĤĪ": 2967,
      "Ġç§ģãģ¯è¦ļæĤŁãģĮãģ§ãģįãģ¦ãģĦãĤĭ": 2968,
      "Ġç§ģãģ¯ãģŁãģ°ãģĵãĤĴåĲ¸ãģĦãģ¾ãģĻ": 2969,
      "Ġå½¼ãģ®äºĭãģ¯å¿ĺãĤĮãģªãģķãģĦ": 2970,
      "ĠãĥĪãĥłãģ¯ãģĬè¾ŀåĦĢãĤĴãģĹãģŁ": 2971,
      "ĠãĥĪãĥłãģ¯å¼ķãģ£è¶ĬãģĹãģŁ": 2972,
      "ĠãĥĪãĥłãģ¯ç·¨ãģ¿çī©ãĤĴãģĻãĤĭ": 2973,
      "Ġå½¼ãģ¯ä¸ĢæĸĩãģªãģĹãģł": 2974,
      "Ġå½¼ãģ¯éĽ»è©±ãĤĴåĪĩãģ£ãģŁ": 2975,
      "Ġå¤§äººãģĹãģıå¾ħãģ£ãģ¦ãģªãģķãģĦ": 2976,
      "Ġç§ģãģ¯å¼ķãģ£è¾¼ãģ¿æĢĿæ¡Īãģ§ãģĻ": 2977,
      "Ġç§ģãģ¯åĲĮæĦıãģĻãĤĭãģłãĤįãģĨ": 2978,
      "ĠãĥĪãĥłãģ«æīĭç´ĻãĤĴæĽ¸ãģįãģªãĤĪ": 2979,
      "Ġç§ģãĤĤåıĤåĬłãģķãģĽãģ¦ãģıãģłãģķãģĦ": 2980,
      "Ġä»ĬãģĻãģĲãģĿãĤĮãĤĴãĤĦãĤĬãģªãģķãģĦ": 2981,
      "ĠéĢ£çµ¡ãĤĴãģ¡ãĤĩãģĨãģłãģĦ": 2982,
      "ĠåĥķãĤīãģ¯æģ¥ãģļãģĭãģĹãģĮãĤĬå±ĭãģ§ãģĻ": 2983,
      "Ġç§ģãģ®è³ªåķıãģ«çŃĶãģĪãģªãģķãģĦ": 2984,
      "Ġæ®ĭå¿µãģªãģĮãĤīãģ©ãģĨãĤĤãģĿãģĨãĤīãģĹãģĦ": 2985
    },
    "merges": [
      "ã ģ",
      "ã Ģ",
      "ã Ĥ",
      "ãĢ Ĥ",
      "ãģ Ħ",
      "ãģ ¦",
      "ï ¼",
      "ã ĥ",
      "ãģ £",
      "Ġ ãģ",
      "Ġ å",
      "ï¼ ģ",
      "ãģ ¯",
      "ãģ Ĺ",
      "ãģ Ł",
      "ãģ ª",
      "Ġ ç",
      "ãģ §",
      "ãģ Ļ",
      "ãĤ Ī",
      "ãģ£ ãģ¦",
      "ãģ ķ",
      "ãģ ¾",
      "ãģ «",
      "§ ģ",
      "Ġç §ģ",
      "Ġ æ",
      "Ġ ãĥ",
      "ãģķ ãģĦ",
      "Ī ãĥ",
      "ãģ ł",
      "Ġ è",
      "Īãĥ ł",
      "ãĤ ĭ",
      "ãģ Ĩ",
      "ãĤ Į",
      "Ġãĥ Īãĥł",
      "ãĤ Ĵ",
      "ãĤ ĵ",
      "ãģ ¡",
      "ãģ§ ãģĻ",
      "ãģ ĭ",
      "ãģª ãģķãģĦ",
      "ãģ ı",
      "ãģ Į",
      "Ġ ãĤ",
      "ãģ ĳ",
      "ãģ£ ãģŁ",
      "Ġç§ģ ãģ¯",
      "Ġ é",
      "ï¼ Ł",
      "ãģ į",
      "ãĤ į",
      "ä ¸",
      "ãĢ ģ",
      "ãģ¾ ãģĻ",
      "ãģĹ ãģ¦",
      "½ ¼",
      "¡ Į",
      "ãģ ¨",
      "ãģ ĵ",
      "Ġå ½¼",
      "ãģ Ľ",
      "ãĤ Ĭ",
      "å ¤",
      "ãģĹ ãģŁ",
      "ĠãĥĪãĥł ãģ¯",
      "ãģ ®",
      "Ġãģ Ĭ",
      "Ġãģ ĵ",
      "° Ĺ",
      "ãģ Ĭ",
      "ãĤ ī",
      "è ¡Į",
      "Ġ ä",
      "ãģ ¿",
      "ãĤ ģ",
      "ãģ ¤",
      "ãģĦ ãģ¦",
      "æ Ŀ",
      "ĠãĤ Ħ",
      "ãģĦ ãģ§",
      "æ °Ĺ",
      "ãģ Ĥ",
      "Ġå½¼ ãģ¯",
      "æĿ ¥",
      "ä º",
      "ĩ º",
      "ãĤ Ħ",
      "ãģĦ ãĤĭ",
      "Ġãģ Ŀ",
      "ĠãĤ Ĥ",
      "Ī å¤",
      "Ĳ ½",
      "ãĥ ¼",
      "Ġãģ Ĥ",
      "ãģĳ ãģ¦",
      "è ¦",
      "ãĤ Ĥ",
      "Ĳ½ ãģ¡",
      "§ ä¸",
      "ĥ ķ",
      "Ġå ĥķ",
      "Ġè Ĳ½ãģ¡",
      "Īå¤ «",
      "§ä¸ Īå¤«",
      "ī ĭ",
      "ĭ Ŀ",
      "ãģ Ī",
      "ãģ Ń",
      "ãĤĵ ãģł",
      "ä ¼",
      "ħ ¥",
      "ãģĦ ãģĦ",
      "Ġãģ Ļ",
      "Ġå ¤",
      "Ġè µ",
      "ãģĹ ãģĦ",
      "ãģł ãģķãģĦ",
      "ãģı ãģłãģķãģĦ",
      "ãģį ãģªãģķãģĦ",
      "ãģ ŀ",
      "ãĤ ĥ",
      "Ġãģ ©",
      "Ġãģ ķ",
      "ãģ¾ ãģĽ",
      "Ġç§ģãģ¯ å",
      "Ġä ¿",
      "ãģ£ãģ¦ ãģ¿",
      "ĠãĤĦ ãĤģ",
      "Ġèµ ·",
      "ª °",
      "¾ ħ",
      "å ĩº",
      "ç Ŀ",
      "ãģĦ ãģŁ",
      "ãģª ãģĦãģ§",
      "ãģ¾ ãģĹãģŁ",
      "ãĤĴ ãģ¤",
      "ãĤĵ ãģ§",
      "ĠãĥĪãĥłãģ¯ æ",
      "ĠèĲ½ãģ¡ çĿ",
      "Ġä¿ º",
      "ĠèĲ½ãģ¡çĿ Ģ",
      "Ŀ Ļ",
      "ãģ Ĵ",
      "ãģ Ķ",
      "ãģ Ŀ",
      "ãģĦ ãģ¾ãģĻ",
      "ãģĹ ãģªãģķãģĦ",
      "ãģª ãģĦ",
      "ĠãĥĪãĥł ãģ«",
      "ãĤĴ æ",
      "ä¸ Ģ",
      "è¡Į ãģĳ",
      "è¦ ĭ",
      "ãģ¾ãģĽ ãĤĵ",
      "ĥ æ°Ĺ",
      "ħ ĥæ°Ĺ",
      "ãģł ãĤĪ",
      "ãģ¡ ãģ¯",
      "ãģĭ ãģ«",
      "ãģį ãģ¦",
      "Ġãģĵ ãĤĮ",
      "äº ĭ",
      "§ä¸Īå¤« ãģ§ãģĻ",
      "ä¼ Ŀ",
      "² ãĤĮ",
      "å ĭĿ",
      "ģ ŀ",
      "ĸ ²ãĤĮ",
      "ãģ ©",
      "ãĤĪ ãģĨ",
      "Ġé ł",
      "Ġãģĵ ãģĵ",
      "ĠãģĿ ãĤĮ",
      "ĠãĤĤ ãģĨ",
      "īĭ ä¼Ŀ",
      "Ġãģķ ãģĤ",
      "ĿĻ ãģĭãģ«",
      "å ı",
      "å ħ¥",
      "è ¨",
      "Ġ ä¸",
      "ĭ ķ",
      "ãģ ¹",
      "ãĤ ĩ",
      "ãĤ ı",
      "Ġå ħĥæ°Ĺ",
      "Ġæ °Ĺ",
      "Ġè ª°",
      "Ġç§ģãģ¯ æ",
      "äº º",
      "¾ħ ãģ£ãģ¦",
      "ĠèĲ½ãģ¡çĿĢ ãģĦãģ¦",
      "è ©",
      "è µ",
      "é ģ",
      "ãģ ¸",
      "ãģ£ ãģ¨",
      "Ġå ĩº",
      "Ġå ĭķ",
      "ãģĹ ãģ¾ãģĻ",
      "ãģĻ ãĤĭ",
      "ãģ£ãģ¦ ãģĬ",
      "Ġç§ģ ãģĮ",
      "Ġè ¡Į",
      "ãĤĵ ãģ«",
      "ãģ¡ ãĤį",
      "ãģı ãĤĮ",
      "Ġé ĿĻãģĭãģ«",
      "ãģĵ ãģ¨",
      "ĠãĤĤ ãģ¡ãĤį",
      "ãģĿ ãģĨ",
      "© ãģĳãģ¦",
      "ä ½",
      "æ Ī",
      "æ Ń",
      "è ģŀ",
      "é £",
      "Ī Ĩ",
      "Ĭ ©ãģĳãģ¦",
      "ãģĦ ãģªãģķãģĦ",
      "ãģ£ ãģ¡",
      "Ġãģ ĺ",
      "Ġå ĭĿ",
      "Ġå ħ¥",
      "ãģ£ãģ¦ ãĤĭ",
      "ãģ« æĿ¥",
      "ãĤĴ å",
      "ãģ§ãģĻ ãģĭ",
      "ãģĭ ãģªãģĦãģ§",
      "ãģĽ ãģ¦",
      "ãĤī ãģ¯",
      "ĠãģĤ ãĤĬ",
      "Ġå¤ §ä¸Īå¤«ãģ§ãģĻ",
      "Ġãģ© ãģĨ",
      "è¨ Ģ",
      "è© ±",
      "« ĭ",
      "® ¶",
      "± ãģĦ",
      "¿ ĺ",
      "ä »",
      "å º",
      "å ¼",
      "æ Ļ",
      "ç Ķ",
      "é ĸ",
      "Ġ ãģĦãģĦ",
      "ľ ¬",
      "Ł ¥",
      "ãģ ³",
      "Ġå Ĳ",
      "Ġå ¾ħãģ£ãģ¦",
      "Ġå Ĭ©ãģĳãģ¦",
      "Ġæ Ĥ",
      "Ġæ ľ¬",
      "ãĤĮ ãģ¦",
      "ãģĮ ãģ¨",
      "Ġé £",
      "Ġãģĵ ãĤĵãģ«",
      "ãĤĦ ãģ£ãģ¦ãģ¿",
      "ĠãģĿ ãģĨ",
      "ãģĪ ãģ¦",
      "ãĤĴãģ¤ ãģĳãģ¦",
      "åĭĿ ãģ¡",
      "ãģ© ãģĨ",
      "èµ °",
      "ĠãģĤãĤĬ ãģĮãģ¨",
      "ĠãģĵãĤĵãģ« ãģ¡ãģ¯",
      "¥ ½",
      "² ãģĹãģĦ",
      "· ³",
      "¹ ¸",
      "½ ķ",
      "å Ĭ",
      "ç Ł¥",
      "è ħ",
      "Ġ ï¼",
      "Ĩ ·",
      "ĳ å¼",
      "Ĺ ©",
      "Ł ãģ¹",
      "ãģ ĸ",
      "ãĤ ¤",
      "ãĤ ¯",
      "ãĥ »",
      "ãĥ ĥ",
      "ãĥ Īãĥł",
      "Ġãģ ª",
      "Ġãģ ¾",
      "Ġå ®¶",
      "Ġå ¿ĺ",
      "ãģĹ ãĤĩ",
      "Ġç ĸ²ãĤĮ",
      "ãģ§ ãģį",
      "ãĤĪ ãģı",
      "ãģķ ãģ¾",
      "ãģ« ãģĦãĤĭ",
      "Ġç§ģ ãģ®",
      "Ġç§ģ ãĤĤ",
      "Ġæ īĭä¼Ŀ",
      "Ġæ Ĺ©",
      "ãĤĭ ãĤĪ",
      "ãģ¡ ãĤĥ",
      "Ġç§ģãģ¯ è",
      "Ġç§ģãģ¯ å¤",
      "è¡Į ãģ£ãģŁ",
      "Ġä »",
      "Ġä ½ķ",
      "ãĤģ ãģ¦",
      "ãģ¤ ãģĦãģ¦",
      "Ġåĥķ ãģ¯",
      "Ġç§ģãģ¯å ¹¸",
      "ĠãĤĦãĤģ ãĤį",
      "Ġéł ĳå¼",
      "Ġåħĥæ°Ĺ åĩº",
      "Ġèª° ãģĮ",
      "Ġåĩº ãģ¦",
      "ĠãĤĤãģ¡ãĤį ãĤĵ",
      "ĪĨ ãģĭ",
      "ĠåĭĿ ãģ£ãģŁ",
      "Ġå¤§ä¸Īå¤«ãģ§ãģĻ ãĤĪ",
      "éĸ ĵ",
      "ĠãģĤãĤĬãģĮãģ¨ ãģĨ",
      "èħ ¹",
      "Ġéłĳå¼ µ",
      "¬ ĳ",
      "² ł",
      "³ £",
      "³ ³",
      "¸ °",
      "» è©±",
      "¾ ŀ",
      "å ¿",
      "æ Ģ",
      "æ ķ",
      "æ ĸ",
      "ç ĸ²ãĤĮ",
      "Ġ ãĤĪãģı",
      "ī ķ",
      "ķ äºĭ",
      "ĺ ĺ",
      "Ļ į",
      "Ľ ®",
      "Ľ ãģ³",
      "Ľ »è©±",
      "ãģĦ ãģ£",
      "ãģĦ ãģ¾ãģĽãĤĵ",
      "ãĥ ³",
      "ãģ£ ãģĭ",
      "ãģĹ ãģª",
      "ãģĹ ãģ¾",
      "ãģŁ ãģ¡ãģ¯",
      "ãģª ãĤī",
      "ãģ£ãģ¦ ãģĦãĤĭ",
      "ãģ¾ ãģĪ",
      "Ġæ Ń",
      "Ġæ ¥½",
      "ĠãĥĪãĥł ãĤĴæ",
      "ãĤĴ è¦ĭ",
      "ãģı ãģª",
      "ãģĮ ãģ§ãģį",
      "ãģĳ ãĤį",
      "Ġå½¼ ãĤīãģ¯",
      "ãģĽ ãĤĪ",
      "ãĤĬ ãģªãģķãģĦ",
      "ãĤĬ ãģ¾ãģĻ",
      "ãģ® åĭĿãģ¡",
      "Ġãģĵ ãģ£ãģ¡",
      "ãģ¿ ãģ¾ãģĽãĤĵ",
      "ĠãĤĦ ãģ£ãģ¦ãģ¿",
      "è¦ ļ",
      "ä¼ ļ",
      "ĠãģĻ ãģĶ",
      "Ġãģķ ãĤĪãģĨ",
      "Ġèµ· ãģįãģªãģķãģĦ",
      "Ġèµ· ãģįãģ¦",
      "Ġä¿º ãģ¯",
      "Ġéł Ń",
      "ĠãģĿãĤĮ ãģ¯",
      "åı Ĥ",
      "Ġæ°Ĺ ãĤĴãģ¤ãģĳãģ¦",
      "äºº ãģ§ãģĻ",
      "ãģ¸ è¡Įãģĳ",
      "Ġåĭķ ãģĭãģªãģĦãģ§",
      "ä½ ¿",
      "ä» ĺ",
      "ĠæĤ ²ãģĹãģĦ",
      "Ġé£ Ľãģ³",
      "Ġå¿ĺ ãĤĮ",
      "ĠæĹ© ãģı",
      "²ł ãģĳ",
      "ĺĺ ãĤĴãģ¤",
      "ĠãģĻãģĶ ãģĦ",
      "ĠãģķãĤĪãģĨ ãģªãĤī",
      "¡ ĺ",
      "¤ ¼",
      "¥ ³",
      "¦ å",
      "³ ¥",
      "¹ Ĺ",
      "» Ļ",
      "å ħ",
      "å ĺĺãĤĴãģ¤",
      "å ¥³",
      "æ Ħ",
      "æ īĭ",
      "æ īĭä¼Ŀ",
      "ç §ģ",
      "ç ¬ĳ",
      "ç ¤¼",
      "è ª",
      "è ª°",
      "é Ļį",
      "é Ľ»è©±",
      "é ¡ĺ",
      "Ģ ¥",
      "Ħ ¡",
      "Ī ĩ",
      "Į ģ",
      "į ķ",
      "Ń ¦å",
      "ãģ °",
      "ãģ Ĳ",
      "ãģ ±ãģĦ",
      "ãģĦ ãĤĪ",
      "ãģĦ ãģĳ",
      "ãĥ Ĺ",
      "ãģ£ ãģĴ",
      "Ġãģ ¡",
      "Ġå ĪĨãģĭ",
      "Ġå ¸°",
      "ãģĹ ãģı",
      "Ġç ´",
      "Ġç Ķ",
      "Ġç «ĭ",
      "Ġç Ľ®",
      "ãģ§ ãģĹãģŁ",
      "ãģ« è¡Į",
      "ãģ« åħ¥",
      "Ġæ Ļ",
      "Ġæ Ģ¥",
      "Ġè ³",
      "ĠãĥĪãĥł ãģĮ",
      "ĠãĥĪãĥł ãģ¨",
      "ãĤĴ ä»ĺ",
      "ãģ§ãģĻ ãĤĪ",
      "ãģĭ ãģª",
      "ãģĭ ãģ£ãģŁ",
      "ãģĮ é",
      "ãģĮ ãģ£ãģ¦",
      "ĠãĤ ¹",
      "Ġé Ģ",
      "Ġé ģ",
      "Ġé ³¥",
      "Ġé »Ļ",
      "ãĤį ãĤĪ",
      "ãģĹãģ¦ ãģıãģłãģķãģĦ",
      "ãģĵ ãģĨ",
      "ãģĵ ãģĵ",
      "Ġå½¼ å¥³",
      "å¤ §ä¸Īå¤«",
      "ĠãģĬ è¦ĭ",
      "ĠãģĬ èħ¹",
      "ĠãģĬ çĸ²ãĤĮ",
      "ãģĬ ãģĨ",
      "ãĤī ãģĹãģĦ",
      "ãĤī ãģªãģĦ",
      "è¡Į ãģı",
      "æĿ¥ ãģŁ",
      "æĿ¥ ãģªãģķãģĦ",
      "ãĤĦ ãģ£ãģŁ",
      "ãģĳãģ¦ ãģŃ",
      "ãģĪ ãĤĭ",
      "ĠãģĻ ãģ¿ãģ¾ãģĽãĤĵ",
      "ĠãģĻ ãģ£ãģĴ",
      "Ġãģ© ãģ£ãģĭ",
      "ĠãĤĦãĤģ ãģªãģķãģĦ",
      "ĠèĲ½ãģ¡çĿĢ ãģĳ",
      "ãģĶ ãģĸ",
      "Ġãģĵãģĵ ãģ«ãģĦãĤĭ",
      "ĠãĤĤãģĨ ä¸Ģ",
      "Ġä¸ ĭ",
      "Ġæ°Ĺ ãĤĴä»ĺ",
      "ãģ£ãģ¨ ãģĹãģ¦",
      "ãģ£ãģ¦ãģĬ ãģĦãģ§",
      "Ġè¡Į ãģı",
      "æĪ Ĳ",
      "èģŀ ãģĦãģ¦",
      "é£ Łãģ¹",
      "Ġãģĺ ãĤĥ",
      "Ġãģĺ ãģ£ãģ¨ãģĹãģ¦",
      "Ġåħ¥ ãģ£ãģ¦",
      "ãĤĴå Ĩ·",
      "åº ¦",
      "æĻ Ĥ",
      "Ġæľ¬ æ°Ĺ",
      "ãģ©ãģĨ ãģŀ",
      "èµ° ãģ£ãģŁ",
      "ãĥ» ãĥ»",
      "Ġå®¶ ãģ«",
      "ãģĹãĤĩ ãģĨ",
      "Ġçĸ²ãĤĮ ãģŁ",
      "Ġç§ģãģ¯å¤ §ä¸Īå¤«ãģ§ãģĻ",
      "Ġç§ģãģ¯å¹¸ ãģĽ",
      "Ġéłĳå¼µ ãĤĮ",
      "æĢ Ŀ",
      "ãģĦãģ£ ãģ±ãģĦ",
      "ãģĹãģ¾ ãģ£ãģŁ",
      "ĠéłŃ ãĤĴåĨ·",
      "²łãģĳ ãģŁ",
      "ĠãģĻãģĶãģĦ ãģŀ",
      "Ġç«ĭ ãģ¡",
      "Ġé»Ļ ãģ£ãģ¦",
      "Ġå½¼å¥³ ãģ¯",
      "ĠãģĬè¦ĭ äºĭ",
      "ĠãģĻãģ£ãģĴ ãĥ¼",
      "Ġãģ©ãģ£ãģĭ è¡Įãģĳ",
      "Ġæ°ĹãĤĴä»ĺ ãģĳãģ¦ãģŃ",
      "ĠéłŃãĤĴåĨ· ãĤĦ",
      "¢ º",
      "£ ãĥ³",
      "¨ ãĤĵãģ§",
      "¨ å¿",
      "± æķ",
      "± ç¤¼",
      "´ Ĺ",
      "´ ãģĹãģ¦",
      "´ ãĤīãģĹãģĦ",
      "¸ ãĥ",
      "º Ģ",
      "½ ĵ",
      "ä ¹Ĺ",
      "å ¯",
      "å ¹",
      "å Ń",
      "å ¾ħãģ£ãģ¦",
      "å ½ĵ",
      "æ īķ",
      "ç ¦",
      "ç ´",
      "ç µ",
      "ç ·",
      "ç Ļ",
      "ç «ĭ",
      "è »",
      "è ¿",
      "è ·³",
      "è Ń¦å",
      "é Ģ",
      "Ģ ãĥ",
      "ģ «",
      "Ĥ éĸĵ",
      "ĥ ãģ¦",
      "ĥ ãģĹãģªãģķãģĦ",
      "ħ Ķ",
      "Ĩ ãģ£",
      "Ī ãģ«",
      "Ĭ ±",
      "Ĭ ãģĮ",
      "Į æĦ",
      "ı ãģ§ãģĻ",
      "ĳ Ĭ",
      "ĳ ï¼",
      "ĳ ãģĵãģĨ",
      "Ĵ ĥãģ¦",
      "ķ ãģ£",
      "Ļ ãģĹãģĦ",
      "Ļ ãĤĴæ",
      "Ļ ãģĪãģ¦",
      "Ľ ãģĦ",
      "Ľ æĪĲ",
      "ł æĻ",
      "Ń ãģ«åħ¥",
      "ãģ »",
      "ãģ ģ",
      "ãģ ĺ",
      "ãģ ļ",
      "ãĤ ¿",
      "ãģĦ ãĤī",
      "ãģĦ ãģ¾ãģĹãģŁ",
      "ãģĦ ãģĹãģ¾ãģĻ",
      "ãĥ ģ",
      "ãĥ ī",
      "ãģ£ ãģĹ",
      "Ġãģ ¯",
      "Ġãģ Ķ",
      "Ġãģ ¨ãĤĵãģ§",
      "Ġå ¾",
      "Ġå ı",
      "ãģĹ ãĤĤ",
      "ãģª ãģ®",
      "ãģª ãĤĵãģł",
      "Ġç ģ«",
      "ãģ£ãģ¦ ãģ¾ãģĻ",
      "ãģ£ãģ¦ ãģĦãģŁ",
      "Ġç§ģ ãģŁãģ¡ãģ¯",
      "Ġç§ģ ãģ«è¡Į",
      "Ġæ Įģ",
      "Ġæ Ĵĥãģ¦",
      "Ġè ģŀ",
      "Ġè ·³",
      "Ġè ¾ŀ",
      "ãĤĭ ãģ®",
      "ãĤĭ ãĤĵãģł",
      "ĠãĥĪãĥł ãĤĴ",
      "ãĤĴ ãģĹãģŁ",
      "ãĤĴ åĩº",
      "ãĤĵ ãģ¦",
      "ãģĭ ãģĽãģ¦",
      "ãģı ãĤĬ",
      "ĠãĤ ı",
      "ãģį ãģª",
      "ãģį ãģ¾ãģĻ",
      "ãģĹãģ¦ ãģªãģķãģĦ",
      "ãģĹãģ¦ ãģ¿",
      "ãģĽ ãĤį",
      "ãĤĬ ãģıãģłãģķãģĦ",
      "ãģĬ ãģĦãģ§",
      "ãģ¿ ãģªãģķãģĦ",
      "ãĤģ ãģ¾ãģĻ",
      "æĿ ¯",
      "æĿ¥ ãģ¦",
      "ĠãĤĤ ãģĹãĤĤ",
      "Ġåĥķ ãĤīãģ¯",
      "ĠèĲ½ãģ¡ ãģ¤",
      "ĠèĲ½ãģ¡ ãģ¤ãģĦãģ¦",
      "ãĤĵãģł ãĤĪ",
      "Ġå¤ §ä¸Īå¤«",
      "Ġèµ °",
      "ãĤĥ ãģĦ",
      "Ġèµ· ãģį",
      "ĠãĥĪãĥłãģ¯æ ³£",
      "ĠãĥĪãĥłãģ« èŃ¦å",
      "ĠãģĵãĤĮ ãĤĴ",
      "åĭĿ ãģ£ãģŁ",
      "Ġãģĵãģĵ ãģ§",
      "Ġä¸ Ńãģ«åħ¥",
      "ãĤĩ ãģ£ãģ¨",
      "ãĤı ãĤĪ",
      "éģ ĭ",
      "Ġåĭķ ãģıãģª",
      "ĠéĿĻãģĭãģ« ãģĹãģªãģķãģĦ",
      "ĠãĤĤãģ¡ãĤį ãĤĵãģłãĤĪ",
      "èģŀ ãģįãģªãģķãģĦ",
      "Ġåħ¥ ãģ£ãģ¦ãģĬãģĦãģ§",
      "ãģ«æĿ¥ ãģªãģķãģĦ",
      "ãģ«æĿ¥ ãģĦãĤĪ",
      "Ġãģ©ãģĨ ãģŀ",
      "åº §",
      "çĶ ·",
      "ĠåĲ ĳãģĵãģĨ",
      "ĠåĬ©ãģĳãģ¦ ãģıãĤĮ",
      "Ġæľ¬ å½ĵ",
      "çŁ¥ ãģ£ãģ¦ãĤĭ",
      "Ġãģª ãĤĵãģ¦",
      "Ġãģ¾ ãģŁ",
      "ãģķãģ¾ ãģ§ãģĹãģŁ",
      "Ġæīĭä¼Ŀ ãģ£ãģ¦",
      "ãģ¡ãĤĥ ãģ£ãģŁ",
      "Ġä» ķäºĭ",
      "Ġåĩºãģ¦ è¡Įãģĳ",
      "ĠãģĤãĤĬãģĮãģ¨ãģĨ ãģĶãģĸ",
      "ĠãĤĪãģı ãĤĦãģ£ãģŁ",
      "ãģĹãģª ãĤĪ",
      "Ġæ¥½ ãģĹ",
      "åħ Īãģ«",
      "æīĭä¼Ŀ ãģ£ãģ¦",
      "įķ ãģ¾ãģĪ",
      "Ġãģ¡ ãĤĩãģ£ãģ¨",
      "Ġç´ łæĻ",
      "ĠçĶ ¨å¿",
      "ĠæĻ Ĥéĸĵ",
      "Ġè³ ĽæĪĲ",
      "Ġé³¥ ãģ¯",
      "ĠãģĬçĸ²ãĤĮ ãģķãģ¾ãģ§ãģĹãģŁ",
      "è¡Įãģı ãģŀ",
      "ĠãĤĤãģĨä¸Ģ åº¦",
      "Ġä¸ĭ ãģĮãģ£ãģ¦",
      "Ġè¡Įãģı ãĤĪ",
      "ĠãģĺãĤĥ ãģĤ",
      "Ġé»Ļãģ£ãģ¦ ãģĦãģªãģķãģĦ",
      "ĠéłŃãĤĴåĨ·ãĤĦ ãģĽ",
      "£ãĥ³ ãĥĹ",
      "¸ãĥ £ãĥ³ãĥĹ",
      "Ģãĥ ¡",
      "Ĩãģ£ ãģıãĤĬ",
      "ĬãģĮ ãĤĭãģ®",
      "ķãģ£ è",
      "ãģĦãĤī ãģ£ãģĹ",
      "Ġãģ¨ãĤĵãģ§ ãĤĤ",
      "Ġç§ģãģ«è¡Į ãģĭãģĽãģ¦",
      "ĠãĤĤãģĹãĤĤ ãģĹ",
      "ĠãĥĪãĥłãģ«èŃ¦å ĳĬ",
      "Ġä¸Ńãģ«åħ¥ ãĤĮãģ¦",
      "Ġåħ¥ãģ£ãģ¦ãģĬãģĦãģ§ ãĤĪ",
      "ĠåĲĳãģĵãģĨ ãģ¸è¡Įãģĳ",
      "ĠãģĤãĤĬãģĮãģ¨ãģĨãģĶãģĸ ãģĦãģ¾ãģĻ",
      "Ġç´łæĻ ´ãĤīãģĹãģĦ",
      "ĠçĶ¨å¿ ĥãģĹãģªãģķãģĦ",
      "ĬãģĮãĤĭãģ® æīĭä¼Ŀãģ£ãģ¦",
      "ãģĦãĤīãģ£ãģĹ ãĤĥãģĦ",
      "¢ ãģĹãģ¦",
      "¤ ï¼",
      "¦ ĭ",
      "¦ ãģĹãģŁ",
      "© ãĤ¤",
      "© ãĥĥ",
      "ª å",
      "ª ãĥ",
      "ª ãģ§ãģĻ",
      "« ĺ",
      "« ãģł",
      "® ĭ",
      "¯ Ĵ",
      "° »",
      "° ãģĭ",
      "° ãģĹãģ¦",
      "± ãģªãģĦ",
      "± ãģĽãĤį",
      "³ ãģĹãģ¾ãģĻ",
      "µ ģ",
      "¶ Ī",
      "¶ Ĭ",
      "¶ ļ",
      "¶ ĻãĤĴæ",
      "· ãģ£ãģ¦",
      "· ãģĹãģ¾ãģĻ",
      "¸ ãģĭ",
      "¹ ¾",
      "º ĸ",
      "» ãĤĵãģł",
      "¼ ãĤĵãģ§",
      "¼ ķãģ£è",
      "½ Ķ",
      "¾ ãģ£ãģ¦ãģĬ",
      "¿ ¡",
      "¿ ĻãģĹãģĦ",
      "å ±",
      "å ¾",
      "å Ĥ",
      "å Ħ",
      "å į",
      "å Ľ",
      "å ¾ħ",
      "å ĪĨ",
      "å ĪĨãģĭ",
      "å °»",
      "æ ¬",
      "æ ģ",
      "æ ºĢ",
      "ç Ľ",
      "ç Ħ¡",
      "ç ¢º",
      "è ģ",
      "è ĩ",
      "è ¾ŀ",
      "è ²łãģĳãģŁ",
      "é Ŀ",
      "é ł",
      "é ĿĻ",
      "é ĿĻãģĭãģ«",
      "Ġ ä¸Ģ",
      "Ġ ãģĦãĤīãģ£ãģĹãĤĥãģĦ",
      "Ģ Ĵ",
      "ĥ Į",
      "Ħ ª",
      "ħ Į",
      "ħ æ°Ĺ",
      "ĩ į",
      "Ĭ ãģ§ãģĻ",
      "ĭ ĩ",
      "ĭ ãĤı",
      "ĭ ãģĳãĤį",
      "Į ĳ",
      "Į ãģĪãĤĭ",
      "į ±ãģªãģĦ",
      "ı ãĤ",
      "ı ãģĻãĤĭ",
      "Ĳ ãģ«",
      "Ĳ ãĤ¤",
      "ĵ ãģ«",
      "Ķ ãģ¨",
      "Ķ ¾ãģ£ãģ¦ãģĬ",
      "ķ ĻãģĪãģ¦",
      "ĸ ãģ£ãģ¦ãģĬ",
      "Ĺ ħæ°Ĺ",
      "Ļ ãģ§ãģĻ",
      "Ļ ãģĮãģ§ãģį",
      "ļ ĩ",
      "Ľ ¢",
      "Ľ ãģĮ",
      "ľ ł",
      "ŀ ãĤ",
      "Ł ãģ§ãģĻ",
      "Ł ãģĹãģŁ",
      "Ń ãĥ¼",
      "ãģ ¥",
      "ãģ İ",
      "ãģ ľ",
      "ãģ Īå¤",
      "ãĤ ¹",
      "ãĤ Ńãĥ¼",
      "ãģĦ ãģł",
      "ãģĦ ãĤĵãģł",
      "ãģ¦ ãģĬ",
      "ãģ¦ ãģªãģĦ",
      "ï¼ ¤ï¼",
      "ãĥ ĵ",
      "ãĥ Ģãĥ¡",
      "ãĥ ıãĤ",
      "Ġãģ Ĩ",
      "Ġãģ ı",
      "Ġãģ Ĺ",
      "Ġãģ ĭãĤı",
      "Ġå ¾ħ",
      "Ġå Ĩ·",
      "Ġå ¯Ĵ",
      "Ġå Ħª",
      "Ġå į±ãģªãģĦ",
      "ãģ¯ ç",
      "ãģ¯ ãģ©ãģĨ",
      "ãģ¯ è¦ļ",
      "ãģ¯ æĢĿ",
      "ãģĹ ãĤģãģ¦",
      "ãģŁ ãģŃ",
      "ãģª ãģŁ",
      "ãģª ãģĹãģı",
      "Ġç Ħ¡",
      "Ġç ¶ļ",
      "ãģ§ ãģŃ",
      "ãģĻ ãģ¿ãģªãģķãģĦ",
      "ãģ£ãģ¦ ãģįãģªãģķãģĦ",
      "ãģ£ãģ¦ ãģįãģ¦",
      "ãģ£ãģ¦ è¨Ģ",
      "ãģķ ãĤĵ",
      "ãģ¾ ãģĹãĤĩãģĨ",
      "ãģ¾ ãģŁãģŃ",
      "ãģ« ãģª",
      "ãģ« ãģĬ",
      "ãģ« ãģĤ",
      "ãģ« ãģ¤ãģĦãģ¦",
      "ãģ« ä¼ļ",
      "ãģ« ãģĹãģ¦ãģıãģłãģķãģĦ",
      "Ġæ Ī",
      "Ġæ īĭ",
      "Ġæ ¶Ī",
      "Ġæ ºĸ",
      "Ġæ Ķ¾ãģ£ãģ¦ãģĬ",
      "Ġæ ķĻãģĪãģ¦",
      "Ġãĥ Īãĥ",
      "Ġãĥ ŀãĤ",
      "Ġè ¾",
      "Ġè ²łãģĳãģŁ",
      "Ġè ¦ĭ",
      "ãĤĭ ãģ»",
      "ãģĨ ãĤĪ",
      "ãĤĮ ãĤĪ",
      "ãĤĮ ãĤĴ",
      "ãĤĮ ãĤį",
      "ĠãĥĪãĥł ãĤĴå",
      "ãĤĴ å¤",
      "ãĤĴ è¦ļ",
      "ãĤĵ ãģª",
      "ãĤĵ ãģ§ãģĻ",
      "ãģ¡ ãģĿãģĨ",
      "ãģ§ãģĻ ãģĮ",
      "ãģĭ ãģĴ",
      "ãģı ãĤī",
      "ãģı ãģ³",
      "ãģĮ ãģĦãĤĭ",
      "ãģĮ åĩº",
      "ãģĮ ãģĦãģ£ãģ±ãģĦ",
      "ĠãĤ ¸ãĥ£ãĥ³ãĥĹ",
      "ĠãĤ Ĩãģ£ãģıãĤĬ",
      "ãģĳ ãĤĭ",
      "ãģ£ãģŁ ãĤĵãģł",
      "Ġç§ģãģ¯ æ°Ĺ",
      "Ġç§ģãģ¯ ãģĿãģĨ",
      "Ġç§ģãģ¯ ç´",
      "Ġé ĸ",
      "Ġé ħĶ",
      "Ġé Ľ¢",
      "ãģį ãģ«",
      "ãģį ãģĹãĤģãģ¦",
      "ä¸ ĭ",
      "ä¸ ĬãģĮãĤĭãģ®æīĭä¼Ŀãģ£ãģ¦",
      "½¼ ãģ«ä¼ļ",
      "ãģ¨ ãģªãģĹãģı",
      "ãģĵ ãģĦ",
      "Ġå½¼ ãģĮ",
      "Ġå½¼ ãĤĴæ",
      "ãĤĬ ãĤį",
      "ãĤĬ ãģ¾ãģĹãģŁ",
      "å¤ ±ç¤¼",
      "ĠãĥĪãĥłãģ¯ çŁ¥",
      "ĠãĥĪãĥłãģ¯ åĺĺãĤĴãģ¤",
      "ãģ® ãģĵãģ¨",
      "ĠãģĬ ãģĬ",
      "ĠãģĬ æ°Ĺ",
      "ĠãģĬ ãĤĦ",
      "ĠãģĬ ãģ¨ãģªãģĹãģı",
      "ãģĬ ãģĶ",
      "ãģĬ é¡ĺ",
      "ãģĬ åħĪãģ«",
      "è¡Į ãģįãģ¾ãģĻ",
      "Ġä ¹¾",
      "ãģ¿ ãģ¦",
      "ãģĦãģ¦ ãģĦãĤĭ",
      "ĠãĤĦ ãģ£ãģ¦",
      "ĠãĤĦ ãģ£ãģŁ",
      "ĠãĤĦ ãģĤ",
      "Ġå½¼ãģ¯ ç¬ĳ",
      "Ġå½¼ãģ¯ èª°",
      "Ġå½¼ãģ¯ éĻį",
      "Ġå½¼ãģ¯ å°»",
      "Ġå½¼ãģ¯ ï¼¤ï¼",
      "æĿ¥ ãģ¾ãģĹãģŁ",
      "ĠãģĿ ãģĵ",
      "ãĥ¼ ãĥ",
      "ĠãģĤ ãĥ¼",
      "ĠãģĤ ãģ£ãģ¡",
      "ĠãģĤ ãģ°",
      "ĠãģĤ ãģıãģ³",
      "Ġåĥķ ãģłãĤĪ",
      "ãģŃ ãģ¦",
      "ãģĦãģĦ ãģ¾ãģĻ",
      "ĠãģĻ ãģĦãģ¾ãģĽãĤĵ",
      "ĠãģĻ ãģĲ",
      "Ġå¤ ±æķ",
      "Ġãģ© ãģªãģŁ",
      "ãģ¾ãģĽ ãĤĪ",
      "Ġç§ģãģ¯å ħĥæ°Ĺ",
      "Ġç§ģãģ¯å ½¼ãģ«ä¼ļ",
      "Ġä¿ ¡",
      "ãģ£ãģ¦ãģ¿ ãĤĭ",
      "ĠãĤĦãĤģ ãģ¦ãģĬ",
      "Ġèµ· ç«ĭ",
      "ĠãĥĪãĥłãģ¯æ īĭ",
      "ĠãĥĪãĥłãģ¯æ ³³",
      "ĠãĥĪãĥłãģ¯æ ¶ĻãĤĴæ",
      "ĠãĥĪãĥłãģ¯æ Įĳ",
      "Ġä¿º ãģĮãģĦãĤĭ",
      "ãģĿ ãĤĮãĤĴ",
      "ĠãĥĪãĥłãģ« èģŀãģĦãģ¦",
      "ãĤĴæ ´Ĺ",
      "ä¸Ģ ç·",
      "ĠãģĵãĤĮ ä½¿",
      "ĠãĤĤãģĨ æŃ",
      "ĠãĤĤãģĨ æºĢ",
      "ĠãģķãģĤ è¡Įãģ£ãģŁ",
      "åħ¥ ãģ£ãģ¦",
      "åħ¥ ãĤĬãģıãģłãģķãģĦ",
      "Ġä¸ Ĭ",
      "Ġåħĥæ°Ĺ ãĤĴåĩº",
      "Ġåħĥæ°Ĺ ãģ§ãģŃ",
      "Ġç§ģãģ¯æ ³³",
      "Ġç§ģãģ¯æ ĢĴ",
      "äºº ãģł",
      "èµ ·",
      "éģ ħ",
      "ãģ¸ æĿ¥ãģªãģķãģĦ",
      "Ġåĩº ãĤį",
      "Ġç§ģãģĮ æīķ",
      "Ġç§ģãģĮ è¡Įãģįãģ¾ãģĻ",
      "ãĤĵãģ« ãģĹãģ¦",
      "ĠéĿĻãģĭãģ« ãģĹãģ¦ãģªãģķãģĦ",
      "ãģĵãģ¨ ãģł",
      "ãģĵãģ¨ ãģĮãģ§ãģį",
      "æĪ »",
      "æŃ ³",
      "é£ Ľ",
      "ãģ«æĿ¥ ãģ¦",
      "Ġãģ©ãģĨ ãģĹãģ¦",
      "Ġãģ©ãģĨ ãĤĤ",
      "è¨Ģ ãģ£ãģ¦ãĤĭ",
      "è©± ãģĹãģŁ",
      "ä» ķäºĭ",
      "çĶ ³ãģĹãģ¾ãģĻ",
      "ĠãģĦãģĦ äººãģ§ãģĻ",
      "ĠãģĦãģĦ åŃ",
      "ĠãģĦãģĦ ãģĭãģĴ",
      "ĠåĲ ĮæĦ",
      "ĠåĲ ĽãģĮ",
      "Ġå¾ħãģ£ãģ¦ ãģıãĤĮ",
      "Ġå¾ħãģ£ãģ¦ ãĤįãĤĪ",
      "Ġé£ Łãģ¹",
      "ãĤĦãģ£ãģ¦ãģ¿ ãģ¦",
      "ãĤĦãģ£ãģ¦ãģ¿ ãģŁ",
      "ãĤĦãģ£ãģ¦ãģ¿ ãģªãģķãģĦ",
      "èµ° ãĤĭ",
      "åĬ ł",
      "Ġï¼ ĳï¼",
      "ãĤ¯ ãĤ¹",
      "ãĥ» ãĢĤ",
      "ãĥĥ ãĥģ",
      "Ġãģª ãĤĭãģ»",
      "Ġç§ģãģ® è",
      "Ġç§ģãĤĤ ãģĿãģĨ",
      "Ġæīĭä¼Ŀ ãģĬãģĨ",
      "Ġç§ģãģ¯è ĥĮ",
      "ãĤģãģ¦ ãģĦãģ¾ãģĻ",
      "Ġåĥķãģ¯ ãģĵãģĵ",
      "Ġç§ģãģ¯å¹¸ ç¦",
      "Ġåħĥæ°Ĺåĩº ãģĹãģ¦",
      "Ġåħĥæ°Ĺåĩº ãģĽãĤĪ",
      "Ġåħĥæ°Ĺåĩº ãģĹãģªãĤĪ",
      "Ġåĩºãģ¦ ãģĦãģĳ",
      "ĠåĭĿãģ£ãģŁ ãģŀ",
      "èħ¹ ãģ§ãģĻ",
      "Ġéłĳå¼µ ãģ£ãģ¦ãģ¿ãĤĭ",
      "æĸ °",
      "æĸ Ļãģ§ãģĻ",
      "ãģŁãģ¡ãģ¯ çŁ¥ãģ£ãģ¦ãĤĭ",
      "ãĤĴè¦ĭ ãĤį",
      "ãĤĴè¦ĭ ãģ¤",
      "ãģ®åĭĿãģ¡ ãģł",
      "ãģ®åĭĿãģ¡ ãĥ¼",
      "ĠãĤĦãģ£ãģ¦ãģ¿ ãĤĭ",
      "ĠãĤĦãģ£ãģ¦ãģ¿ ãĤĪãģĨ",
      "ä¼ļ ãģĬãģĨ",
      "Ġèµ·ãģįãģ¦ ãĤĭãĤĪ",
      "åıĤ ãģĹãģŁ",
      "Ġé£Ľãģ³ éĻį",
      "Ġé£Ľãģ³ è·³",
      "Ġå¿ĺãĤĮ ãģŁ",
      "ç§ģ ãģ®",
      "ç¬ĳ ãģ£ãģ¦",
      "èª į",
      "èª Ń",
      "éĽ»è©± ãģĹãģ¦",
      "é¡ĺ ãģĦãģ¾ãģĻ",
      "Ġå¸° ãĤĬãģªãģķãģĦ",
      "ĠçĽ® ãģ¯è¦ļ",
      "ĠçĽ® ãĤĴè¦ļ",
      "ĠæĢ¥ ãģĴ",
      "ĠãĥĪãĥłãģ¨ ãģĦãģĦãģ¾ãģĻ",
      "ĠãĥĪãĥłãģ¨ çĶ³ãģĹãģ¾ãģĻ",
      "ãģĮé «ĺ",
      "ãģĮé ĩį",
      "ĠãĤ¹ ãĥ",
      "ĠãĤ¹ ãĤŃãĥ¼",
      "ĠéĢ ²",
      "Ġéģ ĵãģ«",
      "ĠãģĬèħ¹ ãģĦãģ£ãģ±ãģĦ",
      "ĠãģĬèħ¹ ãģĮãģĦãģ£ãģ±ãģĦ",
      "ãĤīãģªãģĦ ãĤĪ",
      "ĠèĲ½ãģ¡çĿĢãģĳ ãĤĪ",
      "Ġãģĵãģĵãģ«ãģĦãĤĭ ãĤĪ",
      "Ġãģĵãģĵãģ«ãģĦãĤĭ ãĤıãĤĪ",
      "èģŀãģĦãģ¦ ãģ¿ãģ¦",
      "é£Łãģ¹ ãģ¾ãģĻ",
      "Ġãģĺãģ£ãģ¨ãģĹãģ¦ ãģ¦",
      "æĻĤ åį",
      "ãĥ»ãĥ» ãĥ»ãĢĤ",
      "Ġçĸ²ãĤĮãģŁ ãģª",
      "Ġç§ģãģ¯å¹¸ãģĽ ãģł",
      "Ġç§ģãģ¯å¹¸ãģĽ ãģ§ãģĻ",
      "Ġç«ĭãģ¡ ãģªãģķãģĦ",
      "å¯ Ŀ",
      "å¹ ´",
      "çĻ º",
      "è¿ ·ãģ£ãģ¦",
      "Ĭ± ãģįãģĹãĤģãģ¦",
      "Ġãģ¯ ãģĦ",
      "ĠãģĶ ãģ¡ãģĿãģĨ",
      "Ġå¾ Į",
      "Ġçģ« äºĭ",
      "ĠæĮģ ãģ£ãģ¦",
      "Ġè·³ ãģ¹",
      "Ġè¾ŀ èģ",
      "ãģĹãģ¦ãģ¿ ãĤĭ",
      "ĠèĲ½ãģ¡ãģ¤ ãģįãģª",
      "Ġèµ° ãĤĮ",
      "Ġèµ·ãģį ãĤį",
      "ĠãģĵãĤĮãĤĴ èªŃ",
      "éģĭ è»",
      "åº§ ãģ£ãģ¦",
      "çĶ· ãģłãĤĪ",
      "Ġãģ¾ãģŁ ä¼ļãģĬãģĨ",
      "Ġæ¥½ãģĹ ãĤĵãģ§",
      "įķãģ¾ãģĪ ãĤį",
      "Ġè³ĽæĪĲ ãģ§ãģĻ",
      "ĠãĤĤãģĨä¸Ģåº¦ ãģĬé¡ĺ",
      "©ãĥĥ ãĤ¯ãĤ¹",
      "ªãĥ ©ãĥĥãĤ¯ãĤ¹",
      "°ãģĭ ãģĦãĤĵãģł",
      "µģ ãģĹãģŁ",
      "¼ķãģ£è ¾",
      "åĤ ĻãģĮãģ§ãģį",
      "åĦ Ģ",
      "åĪĨ ãģ§ãģĻ",
      "çĽ ´ãģĹãģ¦",
      "éĿ ¢",
      "éł Ń",
      "éĿĻ ãģ«",
      "ħĮ ãģ¦ãģªãģĦ",
      "ĸãģ£ãģ¦ãģĬ ãģĦãģ¦",
      "Ĺħæ°Ĺ ãģ§ãģĻ",
      "ãģĪå¤ ±ãģĽãĤį",
      "ãĥıãĤ °ãģĹãģ¦",
      "ĠãģĭãĤı ãģĦãģĦ",
      "ĠåĨ· éĿĻãģ«",
      "ãģ¯æĢĿ ãģĦãģ¾ãģĽãĤĵ",
      "Ġæ¶Ī ãģĪå¤±ãģĽãĤį",
      "Ġæºĸ åĤĻãģĮãģ§ãģį",
      "ĠãĥĪãĥ ©ãĤ¤",
      "ĠãĥŀãĤ ¸ãģĭ",
      "ĠãĤ¸ãĥ£ãĥ³ãĥĹ ãģĹãģ¦",
      "Ġç§ģãģ¯ç´ °ãģĭãģĦãĤĵãģł",
      "ĠéħĶ ãģ£ãģŁ",
      "ĠãģĬãģĬ ãģįãģ«",
      "ĠãģĬæ°Ĺ ãĤĴãģ¤ãģĳãģ¦",
      "ĠãģĬãĤĦ ãģĻãģ¿ãģªãģķãģĦ",
      "ĠãģĬãģ¨ãģªãģĹãģı ãģĹãģªãģķãģĦ",
      "ãģĬãģĶ ãĤĬ",
      "Ġä¹¾ æĿ¯",
      "Ġå½¼ãģ¯éĻį åıĤãģĹãģŁ",
      "Ġå½¼ãģ¯å°» ãģĮéĩį",
      "Ġå½¼ãģ¯ï¼¤ï¼ ªãģ§ãģĻ",
      "ĠãģĤãģ£ãģ¡ ãģ¸è¡Įãģĳ",
      "ĠãģĤãģ° ãĤĪ",
      "Ġç§ģãģ¯åħĥæ°Ĺ ãģ§ãģĻ",
      "Ġç§ģãģ¯å½¼ãģ«ä¼ļ ãģ£ãģŁ",
      "ĠãĤĦãĤģãģ¦ãģĬ ãģĳ",
      "ĠãĥĪãĥłãģ¯æ¶ĻãĤĴæ µģãģĹãģŁ",
      "ĠãĥĪãĥłãģ¯æĮĳ æĪ",
      "Ġä¿ºãģĮãģĦãĤĭ ãģķ",
      "ãĤĴæ´Ĺ ãģĦãģªãģķãģĦ",
      "ä¸Ģç· Ĵ",
      "ĠãģĵãĤĮä½¿ ãģ£ãģ¦",
      "ĠãĤĤãģĨæºĢ èħ¹ãģ§ãģĻ",
      "Ġåħĥæ°ĹãĤĴåĩº ãģĽãĤĪ",
      "ĠãģĦãģĦåŃ Ĳãģ«",
      "ĠãģĦãģĦãģĭãģĴ ãĤĵãģ«ãģĹãģ¦",
      "ĠãģªãĤĭãģ» ãģ©",
      "Ġæīĭä¼ĿãģĬãģĨ ãģĭ",
      "Ġç§ģãģ¯èĥĮ ãģĮé«ĺ",
      "Ġåĥķãģ¯ãģĵãģĵ ãģ«ãģĦãĤĭ",
      "Ġç§ģãģ¯å¹¸ç¦ ıãģ§ãģĻ",
      "Ġé£Ľãģ³éĻį ãĤĬãĤį",
      "Ġé£Ľãģ³è·³ ãģŃãģ¦",
      "ĠçĽ®ãģ¯è¦ļ ãĤģãģ¦ãģĦãģ¾ãģĻ",
      "ĠçĽ®ãĤĴè¦ļ ãģ¾ãģĽãĤĪ",
      "Ġéģĵãģ« è¿·ãģ£ãģ¦",
      "ĠãģĬèħ¹ãģĦãģ£ãģ±ãģĦ ãģł",
      "ĠãģĬèħ¹ãģĮãģĦãģ£ãģ±ãģĦ ãģ§ãģĻ",
      "æĻĤåį Ĭãģ§ãģĻ",
      "ĠãģĶãģ¡ãģĿãģĨ ãģķãģ¾",
      "Ġè¾ŀèģ ·ãģĹãģ¾ãģĻ",
      "ĠãĤĤãģĨä¸Ģåº¦ãģĬé¡ĺ ãģĦãģĹãģ¾ãģĻ",
      "ĠæºĸåĤĻãģĮãģ§ãģį ãģ¾ãģĹãģŁ",
      "Ġå½¼ãģ¯å°»ãģĮéĩį ãģĦ",
      "Ġç§ģãģ¯èĥĮãģĮé«ĺ ãģĦ",
      "¡ Ī",
      "¡ ãģ¯",
      "¡ ãĤĴ",
      "¡ åħ",
      "¡ Ķãģ¨",
      "¢ ãģĦ",
      "¢ ãģ¾",
      "¢ ãģł",
      "¢ ãģĹãģŁ",
      "¢ ãĤģ",
      "¢ ãĥ¼",
      "¢ ãĤģãģ¦",
      "£ Ĭ",
      "£ ãģł",
      "£ ãģĹãģĦ",
      "£ ãĤĮãģ¦",
      "£ çµ",
      "¤ ãģĦãģ¦",
      "¥ ŀ",
      "¥ ãģĦ",
      "¥ ãģĦãģ§",
      "¥ ãģªãģĦãģ§",
      "¥ ãģļ",
      "¦ ¬",
      "¦ Ļ",
      "¦ ãģ«",
      "¦ ãĤĭ",
      "¦ ãĤģ",
      "¦ ãģĻãĤĭ",
      "¦ ãģĹãģ¦ãģ¿ãĤĭ",
      "§ £",
      "§ ä",
      "§ å",
      "§ ĺ",
      "§ ãģıãģłãģķãģĦ",
      "§ äºº",
      "§ ãĤ¯",
      "§ ãģ®ãģĵãģ¨",
      "§ ¦ãĤĭ",
      "¨ ±",
      "¨ ãģ¾",
      "¨ ãĤĬ",
      "¨ ãģ¿",
      "¨ ãģĻãĤĭ",
      "¨ ãģĹãģ¦ãģıãģłãģķãģĦ",
      "© º",
      "© ļ",
      "© Ł",
      "© ãĤĴ",
      "© ãģĦãģŁ",
      "© åı",
      "© ãĤģãģ¦",
      "© ãģĳãĤĭ",
      "© ¦ãģĹãģ¦ãģ¿ãĤĭ",
      "ª Ń",
      "ª ãģ£ãģ¦ãĤĭ",
      "ª çĶ",
      "ª åĬ",
      "ª ãģ£ãģ¦ãģĦãĤĭ",
      "ª ãģĭãģ£ãģŁ",
      "ª ãĤīãģªãģĦ",
      "ª ãĥĥãĥģ",
      "« Į",
      "« ãģ£",
      "« ãģª",
      "« ãĤĴ",
      "« ãĥĥ",
      "« ¦ãĤģ",
      "¬ Ŀ",
      "¬ ãģª",
      "¬ å¹",
      "¬ ãĥĵ",
      "¬ ¡ãģ¯",
      "® ´",
      "® Į",
      "® ĺ",
      "¯ ãĤ",
      "¯ ãģ£ãģŁ",
      "¯ æ°Ĺ",
      "¯ æĦ",
      "¯ ãĤ¿",
      "° ĳ",
      "° åıĤ",
      "± ãģĹ",
      "± ãģ®",
      "² ¾",
      "² æ",
      "² ãĤĵãģł",
      "² ãģĿãģĨ",
      "² éĸĵ",
      "² ãģĮãģ£ãģ¦",
      "² §ä",
      "³ ´",
      "³ æ",
      "³ ãģł",
      "³ æ°Ĺ",
      "³ ãģĦãģĦ",
      "³ ªå",
      "³ éĿ¢",
      "´ ãģĪãģ¦",
      "µ ãģª",
      "µ ãĤĴ",
      "µ ãģ£ãģŁ",
      "µ ãģĸ",
      "µ ãĤ¤",
      "¶ ħ",
      "¶ ãģ§ãģĻ",
      "· ·",
      "· ±ãģĦ",
      "· ãģ«ãģª",
      "· ¦ãģ«",
      "¸ ħ",
      "¸ Ľ",
      "¸ ãĤĵãģ§",
      "¸ ãģĦãģ¾ãģĻ",
      "¸ ãģįãģª",
      "¸ ©ãĤģãģ¦",
      "¸ ³éĿ¢",
      "¹ ¿",
      "¹ ıãģ§ãģĻ",
      "¹ ³æ°Ĺ",
      "º Ĩ",
      "º Ĭ",
      "º «ãģł",
      "» ĳ",
      "» ãģª",
      "» ãģ«",
      "» ãģ£ãģŁ",
      "» ãĤī",
      "» ãģĽãģ¦",
      "» ãģ£ãģ¦ãģĬãģĦãģ§",
      "¼ ı",
      "¼ ãģĻ",
      "¼ ãģ¿",
      "½ ãģł",
      "¾ ãģ§ãģĻ",
      "¾ ¨ãģ¾",
      "¿ ĳ",
      "¿ ãĥ",
      "ä ¿¡",
      "å Ĩ",
      "å İ",
      "å ĵ",
      "å ľ",
      "å ĭķ",
      "å ®¶",
      "å ¿ĺ",
      "å ¥½",
      "å ¸°",
      "å £Ĭ",
      "å ©ļ",
      "å «Į",
      "å ¸³éĿ¢",
      "æ Ĥ",
      "æ Ľ",
      "æ ³£",
      "æ ³³",
      "æ Įģ",
      "æ Ĭ±",
      "æ ½Ķ",
      "æ ħĮãģ¦ãģªãģĦ",
      "æ ¡Ī",
      "æ §ĺ",
      "æ ©Ł",
      "æ ·±ãģĦ",
      "æ ¸Ľ",
      "æ »ĳ",
      "ç ħ",
      "ç ī",
      "ç ĭ",
      "ç Ĳ",
      "ç Ĵ",
      "ç ķ",
      "ç ĸ",
      "ç Ń",
      "ç Ľ®",
      "ç ľł",
      "ç Ĺħæ°Ĺãģ§ãģĻ",
      "ç ¾¨ãģ¾",
      "è Ģ",
      "è ĭ",
      "è Į",
      "è Ĳ½",
      "è Ĳ½ãģ¡",
      "è ¶Ĭ",
      "è §£",
      "è º«ãģł",
      "é ħĶ",
      "é ³´",
      "é ¹¿",
      "Ġ 2",
      "Ġ ãĢ",
      "Ġ ãģĦãĤĭ",
      "Ġ ãĤĪãģĨ",
      "Ġ ãģĦãģ£",
      "Ģ ãĤĭ",
      "Ģ ãģ§ãģĻãĤĪ",
      "Ģ å±",
      "Ģ ãģĵãģ¨ãģĮãģ§ãģį",
      "ģ ãģļ",
      "ģ ãģªãģ®",
      "Ĥ äº",
      "Ĥ ãģ£ãģ¦ãģĦãģŁ",
      "Ĥ ãĤĬãģ¾ãģĹãģŁ",
      "ĥ ¨",
      "ĥ ãģĴ",
      "ĥ ãģĪãģ¦",
      "ĥ ãĥĹ",
      "ĥ ãģĪãĤĭ",
      "Ħ ı",
      "Ħ æĿ",
      "ħ ãģĻ",
      "ħ ãĥ¼",
      "ħ ¬å¹",
      "Ĩ ãĥ",
      "Ĩ ãģĻãĤĭ",
      "Ĩ ±ãģĦ",
      "Ĩ ãģķãĤĵ",
      "ĩ ĳ",
      "ĩ ł",
      "ĩ ãĥ",
      "ĩ ãģª",
      "ĩ ãĥ¼",
      "ĩ ä»ĺ",
      "ĩ çĦ¡",
      "ĩ ªçĶ",
      "ĩ ĥãģĪãĤĭ",
      "Ī ãģĹ",
      "Ī ©åı",
      "ī į",
      "ī ãĤı",
      "ī ĩä»ĺ",
      "Ĭ ãģĻ",
      "Ĭ ãģĴ",
      "Ĭ é¡ĺãģĦãģ¾ãģĻ",
      "Ĭ ¼ãģĻ",
      "ĭ į",
      "ĭ ãģ§ãģĻ",
      "ĭ ãģĳãģ¦",
      "Į ãģĮ",
      "Į ãģĦãģ¾ãģĻ",
      "Į ¯ãģ£ãģŁ",
      "į ãģªãģķãģĦ",
      "į å¯",
      "į µãĤĴ",
      "İ ãĤ",
      "İ ¢ãģĹãģ¦",
      "ı ãģ«",
      "ı ãĥ¼",
      "ı ãģĽãĤį",
      "Ĳ ãĤ",
      "Ĳ ãģĦ",
      "Ĳ åĬ",
      "Ĳ ĮæĦ",
      "Ĳ ãĥĥãĥģ",
      "Ĳ ¸ãģĦãģ¾ãģĻ",
      "Ĳ å©ļ",
      "ĳ ãģĦ",
      "ĳ ãģ£ãģŁ",
      "ĳ ¼ãĤĵãģ§",
      "ĳ ãĥ¼ãĥ",
      "ĳ ¨ãĤĬ",
      "ĵ ãģĪ",
      "ĵ ãĤĴå¤",
      "Ķ ï¼",
      "Ķ ãĥ¼",
      "Ķ ãģĪ",
      "ķ ãĤ",
      "ķ ãģĨ",
      "ķ ãģ£ãģ¦ãģĦãĤĭ",
      "ķ ıãģ«",
      "ĸ Ļ",
      "ĸ ãģĹ",
      "ĸ ãģ«",
      "ĸ ãģł",
      "ĸ é£",
      "ĸ ãģ£ãģ¦ãģĦãĤĭ",
      "ĸ ĩçĦ¡",
      "Ĺ ãģł",
      "Ĺ ãģĹãģŁ",
      "Ĺ ãģŃ",
      "Ĺ ĽãģĦ",
      "ĺ ãĤĴ",
      "ĺ Łãģ§ãģĻ",
      "ĺ åľ",
      "Ļ ãĥĥ",
      "ļ ł",
      "ļ ãĤĬãģ¾ãģĻ",
      "ļ ĨãģķãĤĵ",
      "ļ ĳãģĦ",
      "Ľ ãģĹãģ¦",
      "Ľ ³æ",
      "Ľ ¸ãģįãģª",
      "Ľ æĬ±",
      "ľ Ł",
      "ľ ãģ",
      "ľ ãģ£ãģŁ",
      "Ŀ ¥ãģªãģĦãģ§",
      "ŀ ãĤĦãģ£ãģ¦ãģ¿ãģ¦",
      "Ł ãģł",
      "Ł ãģĮ",
      "Ł ãģĻãĤĭ",
      "ł ãģĦ",
      "ł ãģªãĤĵãģł",
      "Ń ãģĦãĤĪ",
      "Ń »ãĤĵãģł",
      "Ń ¢ãĤģ",
      "ãģ ¶",
      "ãģ ī",
      "ãģ µãģ£ãģŁ",
      "ãģ ĩãĥ¼",
      "ãĢ į",
      "ãĤ º",
      "ãĤ ¸ãĥ£ãĥ³ãĥĹ",
      "ãĤ Ĩãģ£ãģıãĤĬ",
      "ãĤ ¢ãĥ¼",
      "ãĤ ³ãģĦãģĦ",
      "ãĤ µãĤ¤",
      "ãĤ Ģãģĵãģ¨ãģĮãģ§ãģį",
      "ãģĦ ãģª",
      "ãģĦ ãģ£ãģ¦",
      "ãģĦ ãģĨ",
      "ãģĦ ãģĭ",
      "ãģĦ ãĤį",
      "ãģĦ ãģĬ",
      "ãģĦ ãģªãģĦ",
      "ãģĦ ãĤıãĤĪ",
      "ãģĦ ãģ¾ãģĹãĤĩãģĨ",
      "ãģĦ æ·±ãģĦ",
      "ãģ¦ ãĤĭ",
      "ãģ¦ ãģ¾ãģĻ",
      "ãģ¦ ãģĦãĤĭ",
      "ãģ¦ ãĤĤ",
      "ãģ¦ ãģĦãģŁ",
      "ãģ¦ ãģıãĤĮ",
      "ãģ¦ ãģĵãģ¨ãģł",
      "ï¼ ĳ",
      "ï¼ ĳï¼",
      "ï¼ Ķï¼",
      "ãĥ ª",
      "ãĥ Ī",
      "ãĥ ĲãĤ¤",
      "ãĥ ªãĥ©ãĥĥãĤ¯ãĤ¹",
      "ãĥ «ãĤĴ",
      "ãĥ Ĩãĥ",
      "ãĥ ĩãĥ",
      "ãĥ ĲãĤ",
      "ãģ£ ãģĻ",
      "ãģ£ ãģį",
      "ãģ£ ãģ»",
      "Ġãģ ¤ãģĦãģ¦",
      "Ġãģ «ãģ£",
      "Ġãģ µãģĸ",
      "Ġãģ »ãĤī",
      "Ġãģ İãĤ",
      "Ġãģ ľãģ",
      "Ġå ĺĺãĤĴãģ¤",
      "Ġå Īĩ",
      "Ġå ¿ĻãģĹãģĦ",
      "Ġå ĭĩ",
      "Ġå ¼ķãģ£è¾",
      "Ġå ¦Ļ",
      "Ġå ®Į",
      "Ġå °ĳ",
      "Ġå ·¦ãģ«",
      "Ġå ¹³æ°Ĺ",
      "Ġå ºĬ",
      "Ġå Ī©åı",
      "Ġå īį",
      "Ġå ĳ¨ãĤĬ",
      "Ġå Ľ³æ",
      "ãģ¯ ãģ¿",
      "ãģ¯ ãģĤ",
      "ãģ¯ åŃ",
      "ãģ¯ ãģļ",
      "ãģ¯ å¿ĺ",
      "ãģ¯ æ»ĳ",
      "ãģĹ ãģł",
      "ãģĹ ãģĮ",
      "ãģĹ ãģ¨",
      "ãģĹ ãģ¾ãģĹãģŁ",
      "ãģĹ ãĤĪãģĨ",
      "ãģĹ ãĤįãĤĪ",
      "ãģĹ éĿĻãģĭãģ«",
      "ãģĹ ä¸ĭ",
      "ãģŁ ãĤĪ",
      "ãģŁ ãģ¡",
      "ãģŁ ãĤģ",
      "ãģŁ ãģĹãģª",
      "ãģŁ ãģ°",
      "ãģŁ ãģ®åĭĿãģ¡ãģł",
      "ãģª ãĤĪ",
      "ãģª äººãģ§ãģĻ",
      "Ġç Ł¥",
      "Ġç ¬ĳ",
      "Ġç ¢º",
      "Ġç ľł",
      "Ġç Ĺħæ°Ĺãģ§ãģĻ",
      "Ġç ¥ŀ",
      "Ġç ²¾",
      "Ġç Ĩ±ãģĦ",
      "Ġç īĩä»ĺ",
      "Ġç ĹĽãģĦ",
      "Ġç ļĨãģķãĤĵ",
      "Ġç ľŁ",
      "ãģ§ ãģĦãģĦ",
      "ãģ§ ãģįãģ¦",
      "ãģ§ ãĤı",
      "ãģ§ ãģĹãĤĩ",
      "ãģ§ ãģĹãĤĩãģĨ",
      "ãģ§ è¨Ģãģ£ãģ¦ãĤĭ",
      "ãģ§ é£Łãģ¹ãģ¾ãģĻ",
      "ãģĻ ãģ¿ãģ¾ãģĽãĤĵ",
      "ãģ£ãģ¦ ãģŃ",
      "ãģ£ãģ¦ éģ",
      "ãģ£ãģ¦ èª°",
      "ãģ£ãģ¦ ãģ°",
      "ãģ£ãģ¦ æĿ¥ãģªãģķãģĦ",
      "ãģ£ãģ¦ ãģĵãģĦ",
      "ãģ£ãģ¦ åĨ",
      "ãģ£ãģ¦ ãģĦãģªãģĦ",
      "ãģķ ãģĭ",
      "ãģķ ãģ£ãģŁ",
      "ãģķ ãģĽãģ¦",
      "ãģ¾ ãģı",
      "ãģ¾ ãģ£ãģŁ",
      "ãģ¾ ãģĪãģ¦",
      "ãģ¾ ãĤĬãģªãģķãģĦ",
      "ãģ« ãĤĤ",
      "ãģ« ä¼",
      "ãģ« ä½¿",
      "ãģ« èģŀãģįãģªãģķãģĦ",
      "ãģ« ãģĹãģªãĤĪ",
      "ãģ« éģħ",
      "ãģ« èģŀãģĦãģ¦ãģ¿ãģ¦",
      "ãģ« åº§ãģ£ãģ¦",
      "ãģ« å¸°",
      "ãģ« ãģĹãĤįãĤĪ",
      "Ġç§ģ ãĤĪ",
      "Ġç§ģ ãģ¨",
      "Ġç§ģ éģ",
      "Ġç§ģ ãģ«ãģ¤ãģĦãģ¦",
      "Ġç§ģ ãģ§ãģĻãģĮ",
      "Ġç§ģ ãģ£ãģ¦åĨ",
      "Ġæ ³£",
      "Ġæ īķ",
      "Ġæ ´Ĺ",
      "Ġæ ºĢ",
      "Ġæ įķãģ¾ãģĪ",
      "Ġæ ®ĭ",
      "Ġæ ¿¡",
      "Ġæ ļĩ",
      "Ġæ Ĭ±ãģįãģĹãĤģãģ¦",
      "Ġæ ħĮãģ¦ãģªãģĦ",
      "Ġæ ¬¡ãģ¯",
      "Ġæ ··",
      "Ġæ ¸©ãĤģãģ¦",
      "Ġæ Ħı",
      "Ġæ Ĭ¼ãģĻ",
      "Ġæ ĸĩçĦ¡",
      "Ġæ ļĳãģĦ",
      "Ġæ Ŀ¥ãģªãģĦãģ§",
      "Ġãĥ Ģãĥ¡",
      "Ġãĥ ĲãĤ¤",
      "Ġãĥ ªãĥ©ãĥĥãĤ¯ãĤ¹",
      "Ġãĥ ªãĥĥãĥģ",
      "Ġãĥ ¯ãĤ",
      "Ġãĥ ıãĥ¼",
      "Ġãĥ Ĳãĥĥãĥģ",
      "Ġãĥ ĳãĥ¼ãĥ",
      "Ġãĥ Ļãĥĥ",
      "Īãĥ ĥãĥĹ",
      "ãģł ãģĦ",
      "ãģł ãģª",
      "ãģł ãĤį",
      "ãģł ãģ¨",
      "ãģł ãģ£ãģ¦è¨Ģ",
      "Ġè §¦ãĤĭ",
      "Ġè ¨±",
      "Ġè ©¦ãģĹãģ¦ãģ¿ãĤĭ",
      "Ġè «¦ãĤģ",
      "Ġè ¬Ŀ",
      "Ġè ¶ħ",
      "Ġè ¿ĳ",
      "ãĤĭ ãĤĤ",
      "ãģĨ ãģ®",
      "ãģĨ ãģĿ",
      "ãģĨ å¹´",
      "ãģĨ ãģłãģĦ",
      "ãĤĮ ãģªãģķãģĦ",
      "ãĤĮ ãģ¾ãģĻ",
      "ãĤĮ ãģªãģĦãģ§",
      "ãĤĮ ãģ¾ãģĽãĤĵ",
      "ãĤĮ ãģ¡ãĤĥãģ£ãģŁ",
      "ĠãĥĪãĥł ãģł",
      "ĠãĥĪãĥł ãģ®",
      "ĠãĥĪãĥł ãģĦãĤĭ",
      "ĠãĥĪãĥł ãģ®åĭĿãģ¡",
      "ĠãĥĪãĥł ãĤĴè¦ĭãģ¤",
      "ĠãĥĪãĥł ãģ£ãģ¦èª°",
      "ãĤĴ ãģ¨",
      "ãĤĴ åı",
      "ãĤĴ ãģ©ãģĨãģŀ",
      "ãĤĴ ç¦",
      "ãĤĴ ç¢º",
      "ãĤĴ ä¸ĭ",
      "ãĤĴ èĲ½",
      "ãĤĴ ãģµãģ£ãģŁ",
      "ãĤĵ ãģĭ",
      "ãĤĵ ãģĹãģ¦",
      "ãĤĵ ãģ¨",
      "ãĤĵ ãģĺ",
      "ãĤĵ ãģŁãģ®åĭĿãģ¡ãģł",
      "ãģ¡ ãĤī",
      "ãģ¡ ãģıãģłãģķãģĦ",
      "ãģ¡ ãĤĩ",
      "ãģ¡ ãģ¾ãģĪ",
      "ãģĭ ãģı",
      "ãģĭ ãģłãĤĪ",
      "ãģĭ ãĤĬãģ¾ãģĻ",
      "ãģĭ åĪĨãģĭ",
      "ãģĭ ãĤĬãģ¾ãģĹãģŁ",
      "ãģĭ ãģĹãģĮ",
      "ãģĭ ãĤĮãģ¾ãģĽãĤĵ",
      "ãģªãģķãģĦ ãĤĪ",
      "ãģı ãģ§ãģĻ",
      "ãģı ãģ¡ãĤĥ",
      "ãģı ãģĺ",
      "ãģĮ ãģ£ãģŁ",
      "ãģĮ ãĤī",
      "ãģĮ ãģĦãģĦ",
      "ãģĮ ä¸Ģ",
      "ãģĮ æīķ",
      "ãģĮ åĽ",
      "ãģĮ æ¬",
      "ãģĮ èµ·",
      "ãģĮ ä»ķäºĭ",
      "ĠãĤ «ãĥĥ",
      "ĠãĤ ¯ãĤ¿",
      "ĠãĤ ¿ãĥ",
      "ãģĳ ãĤĪ",
      "ãģĳ ãģªãģĦãģ§",
      "ãģĳ ãģ©",
      "ãģĳ ãģªãģķãģĦãĤĪ",
      "ãģ£ãģŁ ãģ§ãģĹãĤĩ",
      "ãģ£ãģŁ ãģĭãģı",
      "ãģ£ãģŁ ãģıãģ§ãģĻ",
      "Ġç§ģãģ¯ è¡Į",
      "Ġç§ģãģ¯ ãĤĦ",
      "Ġç§ģãģ¯ ä¸Ģ",
      "Ġç§ģãģ¯ è¡Įãģĳ",
      "Ġç§ģãģ¯ çŁ¥",
      "Ġç§ģãģ¯ ãĥĪãĥł",
      "Ġç§ģãģ¯ ãģ¤ãģĦãģ¦",
      "Ġç§ģãģ¯ çĸ²ãĤĮ",
      "Ġç§ģãģ¯ è¦ļ",
      "Ġç§ģãģ¯ ãģĵãģĵ",
      "Ġç§ģãģ¯ éĢ",
      "Ġç§ģãģ¯ ãģĿãĤĮãĤĴ",
      "Ġç§ģãģ¯ èµ°ãĤĭ",
      "Ġç§ģãģ¯ ç¬ĳãģ£ãģ¦",
      "Ġç§ģãģ¯ éħĶ",
      "Ġç§ģãģ¯ ãģŁãģ°",
      "Ġé Ļį",
      "Ġé Ľ»è©±",
      "Ġé ¡Ķãģ¨",
      "Ġé ¦¬",
      "Ġé ĩĳ",
      "Ġé įµãĤĴ",
      "Ġé ļł",
      "ãģį ãģĤ",
      "ãģį ãģ¾ãģĹãģŁ",
      "ãĤį ãģĦãģ§",
      "ãĤį ãĤĴè¦ĭãĤį",
      "ä¸ ĬãģĴ",
      "ãģĹãģ¦ ãĤĭ",
      "ãģĹãģ¦ ãģĤ",
      "ãģĹãģ¦ ãģĦãĤĭ",
      "ãģĹãģ¦ ãģŃ",
      "ãģĹãģ¦ ãģıãĤĮ",
      "ãģĹãģ¦ ãģĦãģªãģķãģĦ",
      "ãģ¨ ãģĽ",
      "ãģ¨ ãģ©",
      "ãģ¨ ãģįãģ¾ãģĻ",
      "ãģ¨ ãģĦãģ£ãģ¦",
      "ãģĵ ãģ£ãģŁ",
      "ãģĵ ãĤĬ",
      "ãģĵ ãģĿ",
      "ãģĵ ãĤĴå",
      "ãģĵ ãģ£ãģŁãĤĵãģł",
      "Ġå½¼ ãģ®",
      "Ġå½¼ ãĤī",
      "Ġå½¼ ãĤĴè¦ĭ",
      "ãĤĬ ãģªãģĦ",
      "ãĤĬ ãģ¾ãģĽãĤĵ",
      "ãĤĬ è¨Ģ",
      "ãĤĬ å±",
      "ãĤĬ çĭ",
      "ãĤĬ ãĤĴç¦",
      "å¤ ±æķ",
      "å¤ ªãģ£ãģ¦ãĤĭ",
      "å¤ ĸé£",
      "ĠãĥĪãĥłãģ¯ ãģĬ",
      "ĠãĥĪãĥłãģ¯ ãĤĦ",
      "ĠãĥĪãĥłãģ¯ é£",
      "ĠãĥĪãĥłãģ¯ å¼",
      "ĠãĥĪãĥłãģ¯ è¡Įãģ£ãģŁ",
      "ĠãĥĪãĥłãģ¯ ç¤¼",
      "ĠãĥĪãĥłãģ¯ å¤§ä¸Īå¤«",
      "ĠãĥĪãĥłãģ¯ é£Łãģ¹",
      "ĠãĥĪãĥłãģ¯ èµ°ãģ£ãģŁ",
      "ĠãĥĪãĥłãģ¯ ç·",
      "ĠãĥĪãĥłãģ¯ ç«ĭ",
      "ĠãĥĪãĥłãģ¯ éĢ",
      "ĠãĥĪãĥłãģ¯ åĭĿãģ£ãģŁ",
      "ĠãĥĪãĥłãģ¯ è©±ãģĹãģŁ",
      "ĠãĥĪãĥłãģ¯ ãĤĦãģ£ãģ¦ãģ¿ãģŁ",
      "ĠãĥĪãĥłãģ¯ å¯Ŀ",
      "ĠãĥĪãĥłãģ¯ éģĭè»",
      "ĠãĥĪãĥłãģ¯ åĭķ",
      "ĠãĥĪãĥłãģ¯ çľł",
      "ĠãĥĪãĥłãģ¯ èĲ½ãģ¡",
      "ĠãĥĪãĥłãģ¯ ãģķãģ£ãģŁ",
      "ãģ® ãģĭ",
      "ãģ® ãĥ¼",
      "ãģ® äºº",
      "ãģ® ãģıãĤī",
      "ãģ® ãģĬãģĶãĤĬ",
      "ãģ® ãģŁãĤģ",
      "ĠãģĬ è¡Į",
      "ĠãģĬ ãģĦãģ§",
      "ĠãģĬ ãĥ¼",
      "ĠãģĬ ãĤĤ",
      "ĠãģĬ è¨",
      "ĠãģĬ ä½",
      "ĠãģĬ ãģ¾ãģĪ",
      "ĠãģĬ æīĭ",
      "ĠãģĬ æīĭä¼Ŀ",
      "ĠãģĬ éĽ»è©±",
      "ĠãģĬ åħĪãģ«",
      "ĠãģĬ å¾ħ",
      "ĠãģĬ éĿĻãģĭãģ«",
      "ĠãģĬ åħ¥ãĤĬãģıãģłãģķãģĦ",
      "ĠãģĬ èĮ",
      "ĠãģĬ ãģĦãģĬ",
      "Ġãģĵ ãģ¡ãĤī",
      "ãģĬ è©±",
      "ãģĬ ãĤĬãģ¾ãģĻ",
      "ãģĬ ä¹Ĺ",
      "ãģĬ åħ¥ãĤĬãģıãģłãģķãģĦ",
      "ãĤī ãĤĵ",
      "ãĤī ãģªãģĦãģ§",
      "ãĤī ãģıãĤī",
      "ãĤī ãģ®åĭĿãģ¡ãĥ¼",
      "è¡Į ãģ£ãģ¦ãģ¿",
      "è¡Į ãģ£ãģ¨",
      "Ġä ¹Ĺ",
      "Ġä ºĨ",
      "Ġä ¼ı",
      "ãģ¿ ãģ¾ãģĽ",
      "ãģ¿ ãĤĵãģª",
      "ãĤģ ãģŁ",
      "ãĤģ ãĤĭ",
      "ãģ¤ ãģª",
      "ãģ¤ ãĤĪ",
      "ãģ¤ éģ",
      "ãģ¤ ãĤįãģĦãģ§",
      "ãģĦãģ¦ ãĤį",
      "ãģĦãģ¦ ãģĦãģŁ",
      "ãģĦãģ¦ ãģĦãģ¾ãģĻ",
      "ĠãĤĦ ãģģ",
      "ĠãĤĦ ãģ£ãģ»",
      "ãģĦãģ§ ãģĦãĤĭ",
      "ãģĦãģ§ æĪ»",
      "æ°Ĺ ãĤĴåĩº",
      "ãģĤ æģ",
      "ãģĤ ãĤĬãģ¾ãģĽãĤĵ",
      "ãģĤ è¡Įãģ£ãģ¦ãģ¿",
      "Ġå½¼ãģ¯ è¦",
      "Ġå½¼ãģ¯ ãģĦãģĦ",
      "Ġå½¼ãģ¯ ä¸Ģ",
      "Ġå½¼ãģ¯ ãĥĪãĥł",
      "Ġå½¼ãģ¯ åĺĺãĤĴãģ¤",
      "Ġå½¼ãģ¯ éĽ»è©±",
      "Ġå½¼ãģ¯ æĪĲ",
      "Ġå½¼ãģ¯ èµ°ãģ£ãģŁ",
      "Ġå½¼ãģ¯ æĿ¥ãģ¾ãģĹãģŁ",
      "Ġå½¼ãģ¯ èµ°ãĤĭ",
      "Ġå½¼ãģ¯ å¹´",
      "Ġå½¼ãģ¯ éłŃ",
      "Ġå½¼ãģ¯ çĹħæ°Ĺãģ§ãģĻ",
      "Ġå½¼ãģ¯ ãģĨãģĿ",
      "Ġå½¼ãģ¯ å¤ĸé£",
      "æĿ¥ ãģĦ",
      "æĿ¥ ãģ¾ãģĻ",
      "ãĤĦ ãģ£ãģ¦",
      "ãĤĦ ãĤĭ",
      "ãĤĦ ãĤĬ",
      "ãĤĦ ãĤĬãģªãģķãģĦ",
      "ĠãģĿ ãģ£ãģĭ",
      "ĠãģĿ ãĤĵãģª",
      "ĠãģĿ ãģ®ãģĵãģ¨",
      "ãĥ¼ ãĤº",
      "ĠãģĤ ãģ£",
      "ĠãģĤ ãģĸ",
      "ĠãģĤ ãĤĵãģŁãģ®åĭĿãģ¡ãģł",
      "ĠãģĤ ãģ£ãģŁãģĭãģı",
      "ĠãģĤ ãģ®ãĥ¼",
      "ĠãģĤ ãģĤæģ",
      "è¦ §ãģıãģłãģķãģĦ",
      "è¦ ĸãģĹ",
      "ãĤĤ ãģłãĤĪ",
      "ãĤĤ ãģĿãģĨ",
      "ãĤĤ ãģĨå¹´",
      "Ġåĥķ ãģŁãģ¡ãģ¯çŁ¥ãģ£ãģ¦ãĤĭ",
      "Ġåĥķ ãģĮæīķ",
      "Ġåĥķ ãģ®ãģĬãģĶãĤĬ",
      "Ġåĥķ ãĤĤãģłãĤĪ",
      "ãģĪ ãĤį",
      "ãģĦãģĦ ãģ§ãģĻãģĭ",
      "ãģĦãģĦ ãģĳãģ©",
      "ĠãģĻ ãģ¿ãģ¾ãģĽ",
      "Ġå¤ ±ç¤¼",
      "Ġå¤ §äºº",
      "Ġå¤ ªãĤīãģªãģĦ",
      "Ġå¤ īãĤı",
      "Ġå¤ ĸãģ«",
      "ãģĹãģĦ ãĤĪ",
      "ãģĹãģĦ ãģ§ãģĻ",
      "ãģĹãģĦ äººãģ§ãģĻ",
      "ãģįãģªãģķãģĦ ãĤĪ",
      "ãĤĥ ãģ£ãģŁ",
      "ãĤĥ ãģªãģĦ",
      "ãĤĥ ãĤĵãģ¨",
      "Ġãģ© ãģ®ãģıãĤī",
      "Ġãģ© ãģĦãģ¦ãĤį",
      "Ġç§ģãģ¯å ¿ĻãģĹãģĦ",
      "Ġç§ģãģ¯å ĭĩ",
      "Ġç§ģãģ¯å ¼ķãģ£è¾",
      "Ġç§ģãģ¯å ħ¬å¹",
      "Ġç§ģãģ¯å ĩł",
      "Ġç§ģãģ¯å ĲĮæĦ",
      "ĠãĤĦãĤģ ãģŁ",
      "ĠãĤĦãĤģ ãģ¡ãĤĥ",
      "ĠãĤĦãĤģ ãģ¨ãģįãģ¾ãģĻ",
      "åĩº ãĤį",
      "åĩº æĿ¥",
      "åĩº çĻº",
      "ãģĦãģŁ ãģ¯ãģļ",
      "ãĤĴãģ¤ ãģĳãĤį",
      "ãĤĴãģ¤ ãģĦãģ¦ãģĦãĤĭ",
      "ãĤĵãģ§ ãģĹãģŁ",
      "ãĤĵãģ§ ãģĹãĤĩãģĨ",
      "ĠãĥĪãĥłãģ¯æ īķ",
      "ĠãĥĪãĥłãģ¯æ ĸĻ",
      "ĠãĥĪãĥłãģ¯æ Ń»ãĤĵãģł",
      "Ġä¿º ãģ£ãģ¦",
      "Ġä¿º ãģŁãģ¡ãģ¯çŁ¥ãģ£ãģ¦ãĤĭ",
      "Ġä¿º ãģ®åĭĿãģ¡ãĥ¼",
      "Ġä¿º ãģŁãģ¡",
      "Ġä¿º ãĤīãģ®åĭĿãģ¡ãĥ¼",
      "ãģĴ ãģªãģķãģĦ",
      "ãģĴ ãĤį",
      "ãģĴ ãģ¾ãģĻ",
      "ãģĶ ãĤīãĤĵ",
      "ãģĶ è¦§ãģıãģłãģķãģĦ",
      "ãģªãģĦ ãģ®",
      "ĠãĥĪãĥłãģ« ä¼Ŀ",
      "ĠãĥĪãĥłãģ« æķ",
      "ĠãĥĪãĥłãģ« ä¼ļ",
      "ĠãĥĪãĥłãģ« æīĭ",
      "ĠãĥĪãĥłãģ« èģŀãģįãģªãģķãģĦ",
      "ĠãĥĪãĥłãģ« å¾",
      "ĠãĥĪãĥłãģ« éĽ»è©±ãģĹãģ¦",
      "ĠãĥĪãĥłãģ« ãĥıãĤ°ãģĹãģ¦",
      "ãĤĴæ Į¯ãģ£ãģŁ",
      "ä¸Ģ æĿ¯",
      "ä¸Ģ çķ",
      "è¦ĭ ãģĽãģ¦",
      "è¦ĭ ãĤįãĤĪ",
      "è¦ĭ ãģĪãĤĭ",
      "è¦ĭ ãģĮä¸Ģ",
      "ãģĭãģ« èģŀãģĦãģ¦ãģ¿ãģ¦",
      "ĠãģĵãĤĮ åı",
      "ĠãģĵãĤĮ éģĭ",
      "ĠãģĵãĤĮ ç¢º",
      "ĠãģĵãĤĮ çĽ´ãģĹãģ¦",
      "ĠãģĵãĤĮ æĮģ",
      "ĠãģĵãĤĮ ãģ«ãģĹãģªãĤĪ",
      "ĠãģĵãĤĮ ãģĮæ¬",
      "äºĭ ãģ¯å¿ĺ",
      "åĭĿ ãģłãĤĪ",
      "ãĤĪãģĨ ãģ«",
      "Ġãģĵãģĵ ãģłãĤĪ",
      "Ġãģĵãģĵ ãģ«ãģĤ",
      "Ġãģĵãģĵ ãģ¸æĿ¥ãģªãģķãģĦ",
      "Ġãģĵãģĵ ãģ«åº§ãģ£ãģ¦",
      "ĠãģĿãĤĮ ãģ£ãģ¦",
      "ĠãģĿãĤĮ å¥½",
      "ĠãģĿãĤĮ ãģ§ãģĦãģĦ",
      "ĠãģĿãĤĮ ãģĮä»ķäºĭ",
      "ĠãĤĤãģĨ éģħ",
      "ĠãĤĤãģĨ å¯Ŀ",
      "īĭä¼Ŀ ãģĨãĤĪ",
      "ĠãģķãģĤ ãģ©ãģĨãģŀ",
      "ĠãģķãģĤ ä¹Ĺ",
      "åı ©ãģĦãģŁ",
      "åı ¯æĦ",
      "åħ¥ ãĤĮãģ¦",
      "åħ¥ ãĤĬãĤĴç¦",
      "è¨ ĺãĤĴ",
      "Ġä¸ ĬãģĮãĤĭãģ®æīĭä¼Ŀãģ£ãģ¦",
      "ãģ¹ ãĤĭãĤĪ",
      "ãģ¹ ãĤĭãĤĵãģł",
      "ãĤı ãģŃ",
      "ãĤı ãģĭãĤĬãģ¾ãģĻ",
      "Ġæ°Ĺ ãģ«åħ¥",
      "Ġèª° ãģ«ãĤĤ",
      "Ġèª° ãģĭãģ«èģŀãģĦãģ¦ãģ¿ãģ¦",
      "Ġç§ģãģ¯æ ®ĭ",
      "Ġç§ģãģ¯æ ½Ķ",
      "Ġç§ģãģ¯æ ļĩ",
      "Ġç§ģãģ¯æ ¸ħ",
      "Ġç§ģãģ¯æ ĭį",
      "Ġç§ģãģ¯æ īĭä¼ĿãģĨãĤĪ",
      "äºº éĸĵ",
      "è© ¦ãģĹãģŁ",
      "éģ ķãģ£ãģ¦ãģĦãĤĭ",
      "ãģ¸ ãģĦãģĳ",
      "ãģ¸ ãģĬãģĦãģ§",
      "ãģ£ãģ¨ ãģĵãģĨ",
      "Ġåĩº çĻº",
      "Ġåĭķ ãģĦãģŁ",
      "ãģ£ãģ¦ãģĬ ãģĦãģŁãģ¯ãģļ",
      "Ġç§ģãģĮ ä½",
      "Ġç§ģãģĮ åĭĿãģ¡",
      "Ġç§ģãģĮ ä½¿",
      "Ġç§ģãģĮ å£Ĭ",
      "Ġç§ģãģĮ ä¸Ģçķ",
      "Ġè¡Į ãģĳ",
      "Ġè¡Į ãģįãģªãģķãģĦ",
      "Ġè¡Į ãģĭãģªãģĦãģ§",
      "Ġè¡Į ãģĭãģª",
      "Ġè¡Į ãģĳãĤĭ",
      "ĠéĿĻãģĭãģ« ãģĹãģ¦ãģıãĤĮ",
      "ãģĵãģ¨ ãģĮåĩº",
      "ä½ ķ",
      "æŃ »ãĤĵãģł",
      "æŃ ĮãģĪãĤĭ",
      "æŃ £ãģĹãģĦ",
      "æŃ ĮãģĦãģ¾ãģĻ",
      "èģŀ ãģĳ",
      "Ĭ©ãģĳãģ¦ ãĤĦãģ£ãģ¦",
      "ãģ£ãģ¡ ãĤĥãģ£ãģŁ",
      "ĠåĭĿ ãģ¦ãĤĭ",
      "ĠåĭĿ ãģ¤ãĤĪ",
      "Ġåħ¥ ãĤĮ",
      "ãģ£ãģ¦ãĤĭ ãĤĪ",
      "ãĤĴå Īĩ",
      "ãģĭãģªãģĦãģ§ ãģıãĤĮ",
      "ĠãģĤãĤĬ å¾",
      "Ġå¤§ä¸Īå¤«ãģ§ãģĻ ãģĭ",
      "è¨Ģ ãģ£ãģ¦ãģĦãĤĭ",
      "è¨Ģ ãģĦãģ¾ãģĹãģŁ",
      "è¨Ģ ãģ£ãģ¦ãģĬãģĦãģŁãģ¯ãģļ",
      "±ãģĦ ãģ¾ãģĹãģŁ",
      "çĶ ¨ãģĹãģ¦ãģıãģłãģķãģĦ",
      "éĸ ĭãģĳãĤį",
      "ĠãģĦãģĦ åĬł",
      "ĠåĬ©ãģĳãģ¦ ãģıãģłãģķãģĦ",
      "ĠæĤ ªãģĭãģ£ãģŁ",
      "ĠæĤ ²æ",
      "ãĤĮãģ¦ ãģ¦",
      "ãĤĦãģ£ãģ¦ãģ¿ ãĤĭãĤĵãģł",
      "ĠãģĿãģĨ ãģ§ãģĻãģĭ",
      "ĠãģĿãģĨ æĢĿ",
      "ĠãģĿãģĨ ãģªãĤĵãģł",
      "ĠãģĿãģĨ ãģ¯æĢĿãģĦãģ¾ãģĽãĤĵ",
      "ĠãģĿãģĨ ãģĦãģĨ",
      "ĠãģĿãģĨ ãģłãģ¨",
      "ĠãģĿãģĨ è¨Ģãģ£ãģ¦ãģĬãģĦãģŁãģ¯ãģļ",
      "ãģ©ãģĨ ãĤĤãģĿãģĨ",
      "èµ° ãĤĮ",
      "ĠãģĤãĤĬãģĮãģ¨ ãĤĪ",
      "ĠãģĵãĤĵãģ«ãģ¡ãģ¯ ãĥĪãĥł",
      "åĬ ŁãģĹãģŁ",
      "åĬ ªåĬ",
      "Ġï¼ ĵ",
      "Ġï¼ ķ",
      "Ġï¼ Ĺ",
      "Ġï¼ Ļ",
      "ãĤ¯ ãĤ¿",
      "ãĤ¯ ãĥĵ",
      "ãĤ¯ ãĥ¼ãĥ",
      "Ġãģª ãģľ",
      "Ġãģ¾ ãģķãģĭ",
      "Ġãģ¾ ãģ£ãģŁãģıãģ§ãģĻ",
      "Ġãģ¾ ãģĤè¡Įãģ£ãģ¦ãģ¿",
      "Ġå®¶ ãģ«æĿ¥ãģĦãĤĪ",
      "Ġå®¶ ãģ«æĿ¥ãģ¦",
      "Ġå¿ĺ ãĤĮãģ¦",
      "ãģĹãĤĩ ãģ«æĿ¥ãģªãģķãģĦ",
      "Ġçĸ²ãĤĮ ãģ¾ãģĹãģŁ",
      "Ġçĸ²ãĤĮ ãģ¦ãģĦãĤĭ",
      "ãģ§ãģį ãĤĭãĤĪ",
      "ãĤĪãģı ãģĹãģªãģķãģĦ",
      "ãģķãģ¾ ãģ§ãģĹãĤĩãģĨ",
      "Ġç§ģãģ® åĭĿãģ¡",
      "Ġç§ģãģ® è¨Ģãģ£ãģ¦ãĤĭ",
      "Ġç§ģãģ® ãģĬãģĶãĤĬ",
      "Ġç§ģãģ® ãĤĴãģ©ãģĨãģŀ",
      "Ġç§ģãĤĤ åıĤ",
      "Ġç§ģãĤĤ ãĤĤãģĨå¹´",
      "Ġç§ģãĤĤ åħ¥ãĤĮãģ¦",
      "Ġæīĭä¼Ŀ ãģĨãĤĪ",
      "ĠæĹ© ãģĭãģ£ãģŁ",
      "Ġç§ģãģ¯è Ń¦å",
      "Ġç§ģãģ¯è ªŃ",
      "Ġç§ģãģ¯è ²§ä",
      "Ġç§ģãģ¯è ĩªçĶ",
      "Ġç§ģãģ¯å¤ §ä¸Īå¤«",
      "Ġç§ģãģ¯å¤ ªãģ£ãģ¦ãģĦãĤĭ",
      "Ġä» ²éĸĵ",
      "Ġä» »ãģĽãģ¦",
      "Ġä» ĬãģĻ",
      "Ġä½ķ ãģ¦ãģĵãģ¨ãģł",
      "Ġä½ķ ãģ§ãĤı",
      "Ġä½ķ ãģ«ä½¿",
      "Ġä½ķ ãģĮèµ·",
      "Ġä½ķ ãģ®ãģŁãĤģ",
      "Ġä½ķ è¨Ģãģ£ãģ¦ãģĦãĤĭ",
      "Ġåĥķãģ¯ å¿",
      "Ġåĥķãģ¯ èµ·",
      "Ġåĥķãģ¯ èĭ",
      "Ġåĥķãģ¯ ãĥªãĥ©ãĥĥãĤ¯ãĤ¹",
      "ĠãĤĦãĤģãĤį ãĤĪ",
      "Ġèª°ãģĮ è¡Įãģı",
      "Ġèª°ãģĮ æĿ¥ãģŁ",
      "Ġèª°ãģĮ èµ°ãģ£ãģŁ",
      "Ġèª°ãģĮ åĭĿãģ£ãģŁ",
      "Ġèª°ãģĮ æĿ¥ãģ¾ãģĹãģŁ",
      "Ġèª°ãģĮ æŃ»ãĤĵãģł",
      "Ġåĩºãģ¦ ãģĳ",
      "ĠãĤĤãģ¡ãĤįãĤĵ ãģķ",
      "ĠåĭĿãģ£ãģŁ ãģģ",
      "éĸĵ éģķãģ£ãģ¦ãģĦãĤĭ",
      "å¿ µãģª",
      "æĢ ¥ãģĦãģ§",
      "æķ ¢ãģł",
      "æĸ ĩãģª",
      "ĠãĤĪãģı èģŀãģįãģªãģķãģĦ",
      "ĠãĤĪãģı èģŀãģĳ",
      "ãĥ³ ãģĹãģ¦",
      "ãĥ³ ãģ«ãģĹãģ¦ãģıãģłãģķãģĦ",
      "ãģĹãģª ãĤĵãģł",
      "ãģĹãģ¾ ãģĦãģ¾ãģĹãģŁ",
      "ĠæŃ ĮãģĪãĤĭ",
      "ĠæŃ ¢ãģ¾",
      "ĠæŃ ©ãģĳãĤĭ",
      "ĠæŃ »ãģª",
      "ĠæŃ ĮãģĮ",
      "Ġæ¥½ ãģ«ãģĹãģ¦ãģıãģłãģķãģĦ",
      "Ġæ¥½ åĭĿãģłãĤĪ",
      "ĠãĥĪãĥłãĤĴæ Ĭ±ãģįãģĹãĤģãģ¦",
      "ĠãĥĪãĥłãĤĴæ įķãģ¾ãģĪãĤį",
      "ĠãĥĪãĥłãĤĴæ ®´",
      "ĠãĥĪãĥłãĤĴæ İ¢ãģĹãģ¦",
      "ĠãĥĪãĥłãĤĴæ Ń¢ãĤģ",
      "ãģĮãģ§ãģį ãģ¾ãģĻ",
      "Ġå½¼ãĤīãģ¯ åĺĺãĤĴãģ¤",
      "Ġå½¼ãĤīãģ¯ åĭĿãģ£ãģŁ",
      "Ġå½¼ãĤīãģ¯ è²łãģĳãģŁ",
      "Ġå½¼ãĤīãģ¯ åİ",
      "Ġå½¼ãĤīãģ¯ æ³³",
      "Ġãģĵãģ£ãģ¡ ãģĬãģĦãģ§",
      "Ġãģĵãģ£ãģ¡ ãģ«æĿ¥ãģĦãĤĪ",
      "Ġãģĵãģ£ãģ¡ ãģ¸æĿ¥ãģªãģķãģĦ",
      "Ġãģĵãģ£ãģ¡ ãģ«æĿ¥ãģ¦",
      "Ġãģĵãģ£ãģ¡ ãģ¸ãģĬãģĦãģ§",
      "ĠãĤĦãģ£ãģ¦ãģ¿ ãģŁ",
      "Ġèµ·ãģįãģ¦ ãĤĭ",
      "Ġä¿ºãģ¯ ãģĦãģĭ",
      "Ġä¿ºãģ¯ ãĥĩãĥ",
      "Ġä¿ºãģ¯ äººéĸĵ",
      "Ġä¿ºãģ¯ ãĤ¯ãĥ¼ãĥ",
      "Ġä¿ºãģ¯ éĸĵéģķãģ£ãģ¦ãģĦãĤĭ",
      "ĠéłŃ ãĤĴä¸ĭ",
      "ĠãģĿãĤĮãģ¯ çĦ¡",
      "ĠãģĿãĤĮãģ¯ æĸ°",
      "ĠãģĿãĤĮãģ¯ èªį",
      "ĠãģĿãĤĮãģ¯ ãĥĨãĥ",
      "ĠãģĿãĤĮãģ¯ å¤±æķ",
      "åıĤ ãģĹãģ¾ãģĻ",
      "ä½¿ ãģĦãģª",
      "ĠæĤ²ãģĹãģĦ ãģ§ãģĻ",
      "ĠæĤ²ãģĹãģĦ ãĤıãģŃ",
      "Ġé£Ľãģ³ è¶Ĭ",
      "Ġå¿ĺãĤĮ ãĤį",
      "Ġå¿ĺãĤĮ ãģ¾ãģĹãģŁ",
      "Ġå¿ĺãĤĮ ãģ¡ãģ¾ãģĪ",
      "ĠæĹ©ãģı æĿ¥ãģªãģķãģĦ",
      "ĠæĹ©ãģı ãģĬãģĦãģ§",
      "ĠæĹ©ãģı ãģĦãĤīãģ£ãģĹãĤĥãģĦ",
      "ĠæĹ©ãģı å®¶",
      "ĠæĹ©ãģı æĿ¥ãģĦ",
      "²łãģĳ ãģł",
      "æīĭ ãģĹãģŁ",
      "æīĭ ãĤĴæ´ĹãģĦãģªãģķãģĦ",
      "ç§ģ ãģªãģ®",
      "èª° ãģ§ãģĻãģĭ",
      "Īĩ ãģ«",
      "Īĩ ãģªäººãģ§ãģĻ",
      "įķ ãģ¾ãģĪãģ¦",
      "ãģĲ ãģĿãĤĮãĤĴ",
      "ãģĲ ãģĵãģ¨ãģĮåĩº",
      "ãģĦãģĳ ãģªãģĦãģ®",
      "Ġãģ¡ ãĤĥãĤĵãģ¨",
      "ĠåĪĨãģĭ ãģ£ãģŁ",
      "ĠåĪĨãģĭ ãģ£ãģ¦ãĤĭ",
      "ĠåĪĨãģĭ ãģ£ãģ¦ãģ¾ãģĻ",
      "ĠåĪĨãģĭ ãĤīãģªãģĦãĤĪ",
      "Ġå¸° ãģ£ãģ¦ãģįãģªãģķãģĦ",
      "Ġå¸° ãģ£ãģ¦ãģĵãģĦ",
      "ãģĹãģı å¾ħãģ£ãģ¦",
      "ãģĹãģı ãģĹãģ¦ãģĤ",
      "Ġç´ ĦæĿ",
      "ĠçĶ ·ãģ«ãģª",
      "ãģ«è¡Į ãģįãģªãģķãģĦ",
      "ĠæĻ ¯æ°Ĺ",
      "ĠæĢ¥ ãģİ",
      "ĠæĢ¥ ãģĦãģ§æĪ»",
      "Ġè³ ¢ãģĦ",
      "ĠãĥĪãĥłãģĮ æĿ¥ãģŁ",
      "ĠãĥĪãĥłãģĮ è²łãģĳãģŁ",
      "ĠãĥĪãĥłãģĮ ç¾¨ãģ¾",
      "ĠãĥĪãĥłãģĮ è¦ĭãģĪãĤĭ",
      "ĠéĢ £çµ",
      "ĠéĢ Ģå±",
      "Ġéģ ħãģĻ",
      "Ġéģ ķãģĨ",
      "Ġé³¥ ãģĮåĽ",
      "ãģĵãģĵ ãģ«ãģĤ",
      "å¤§ä¸Īå¤« ãģĭãģª",
      "ĠãģĬçĸ²ãĤĮ æ§ĺ",
      "æĿ¥ãģŁ æĿ¥ãģŁ",
      "ĠãģĻãģ¿ãģ¾ãģĽãĤĵ ãģŃ",
      "ãģĶãģĸ ãģĦãģ¾ãģĽãĤĵ",
      "ĠãĤĤãģĨä¸Ģ åĽ",
      "Ġä¸ĭ ãĤĴè¦ĭãĤį",
      "Ġè¡Įãģı ãĤĵãģĺ",
      "é£Łãģ¹ ãģ¦",
      "Ġåħ¥ãģ£ãģ¦ ãģıãģłãģķãģĦ",
      "Ġåħ¥ãģ£ãģ¦ ãģįãģªãģķãģĦ",
      "åº¦ ãĤĦãģ£ãģ¦ãģ¿ãģªãģķãģĦ",
      "Ġæľ¬æ°Ĺ ãģłãĤĪ",
      "Ġæľ¬æ°Ĺ ãģ§è¨Ģãģ£ãģ¦ãĤĭ",
      "Ġå®¶ãģ« ãģĦãģªãģķãģĦ",
      "Ġå®¶ãģ« æĪ»",
      "Ġå®¶ãģ« éĽ»è©±ãģĹãģ¦",
      "Ġå®¶ãģ« ãģ¨ãģ©",
      "Ġçĸ²ãĤĮãģŁ ãĤĪ",
      "Ġçĸ²ãĤĮãģŁ ãĥ¼",
      "Ġéłĳå¼µãĤĮ ãĤĪ",
      "æĢĿ æ¡Ī",
      "Ġç«ĭãģ¡ ä¸ĬãģĮãĤĭãģ®æīĭä¼Ŀãģ£ãģ¦",
      "Ġç«ĭãģ¡ åħ¥ãĤĬãĤĴç¦",
      "Ġé»Ļãģ£ãģ¦ ãģ¦",
      "Ġå½¼å¥³ãģ¯ ãĤĦãģ£ãģ¦ãģ¿ãģŁ",
      "Ġå½¼å¥³ãģ¯ æ³£",
      "Ġå½¼å¥³ãģ¯ è©¦ãģĹãģŁ",
      "Ġå½¼å¥³ãģ¯ èª°ãģ§ãģĻãģĭ",
      "ĠéłŃãĤĴåĨ·ãĤĦ ãģĽãĤĪ",
      "´ãģĹãģ¦ ãģĦãĤĭ",
      "ä¹Ĺ è»",
      "ç´ ĻãĤĴæ",
      "çµ Ĥäº",
      "çµ Ĳå©ļ",
      "çĻ ½ãģł",
      "è¿ °åıĤ",
      "è·³ ãģ¹ãĤĭãĤĪ",
      "éĢ £ãĤĮãģ¦",
      "ĽãģĦ ãĤĵãģ§ãģĹãĤĩãģĨ",
      "ãģĺ ãģ¦ãģıãĤĮ",
      "ãĤ¿ ãĥ³ãģ«ãģĹãģ¦ãģıãģłãģķãģĦ",
      "ãģĦãģĹãģ¾ãģĻ ãĤĪ",
      "ãĥģ ãĥ¼ãĤº",
      "ãĥī ãĥ«ãĤĴ",
      "ãĥī ãĤĴèĲ½",
      "ãĥī ãģ¸ãģĦãģĳ",
      "Ġãģ¯ ãģ£ãģį",
      "ĠãģĶ ä¹Ĺè»",
      "Ġå¾ ¡åħ",
      "Ġåı ĸãģ£ãģ¦ãģĬãģĦãģ¦",
      "Ġåı ĤãĤĬãģ¾ãģĹãģŁ",
      "Ġåı įå¯",
      "Ġçģ« ãģ¯ç",
      "Ġç§ģãģŁãģ¡ãģ¯ çĶ·",
      "Ġç§ģãģŁãģ¡ãģ¯ çŁ¥ãģ£ãģ¦ãĤĭ",
      "Ġç§ģãģŁãģ¡ãģ¯ åĬªåĬ",
      "ĠæĮģ ãģ£ãģ¦ãĤĭãĤĪ",
      "Ġèģŀ ãģĦãģ¦",
      "Ġèģŀ ãģįãģªãģķãģĦ",
      "Ġèģŀ ãģĭãģªãģĦãģ§ãģıãĤĮ",
      "Ġè·³ ãĤĵãģ§",
      "Ġè¾ŀ ãĤģãģ¾ãģĻ",
      "ĠãĥĪãĥłãĤĴ ãĥıãĤ°ãģĹãģ¦",
      "ĠãĥĪãĥłãĤĴ åı©ãģĦãģŁ",
      "ĠãĥĪãĥłãĤĴ éĢ£ãĤĮãģ¦",
      "ĠãĤı ãģĭãģ£ãģŁ",
      "ĠãĤı ãģī",
      "ĠãĤı ãģĭãĤĬãģ¾ãģĹãģŁ",
      "ãģĹãģ¦ãģ¿ ãģ¦",
      "æĿ¥ãģ¦ ãģŃ",
      "ĠåĥķãĤīãģ¯ å¾ħ",
      "ĠåĥķãĤīãģ¯ æģ",
      "ĠåĥķãĤīãģ¯ è©±ãģĹãģŁ",
      "ĠèĲ½ãģ¡ãģ¤ ãģĳãĤĪ",
      "Ġèµ° ãģ£ãģ¦",
      "Ġèµ·ãģį ä¸ĬãģĮãĤĭãģ®æīĭä¼Ŀãģ£ãģ¦",
      "ĠãĥĪãĥłãģ¯æ³£ ãģĦãģŁ",
      "ĠãĥĪãĥłãģ¯æ³£ ãģįãģ¾ãģĹãģŁ",
      "ĠãĥĪãĥłãģ¯æ³£ ãģĦãģ¦ãģĦãģŁ",
      "ĠãģĵãĤĮãĤĴ ä½¿ãģĦãģª",
      "Ġãģĵãģĵãģ§ å¾ħãģ£ãģ¦",
      "Ġãģĵãģĵãģ§ é£Łãģ¹ãģ¾ãģĻ",
      "Ġãģĵãģĵãģ§ ãĤµãĤ¤",
      "Ġãģ©ãģĨãģŀ ãģĬè©±",
      "åº§ ãĤĬ",
      "Ġæľ¬å½ĵ ãģ«",
      "Ġæľ¬å½ĵ ãģ§ãģĻãĤĪ",
      "ĠãģªãĤĵãģ¦ ãģĵãģ¨ãģł",
      "ĠãģªãĤĵãģ¦ ãģĵãģ£ãģŁ",
      "ĠãģªãĤĵãģ¦ åı¯æĦ",
      "Ġãģ¾ãģŁ æĿ¥ãģ¦ãģŃ",
      "Ġæīĭä¼Ŀãģ£ãģ¦ ãĤĪ",
      "ãģ¡ãĤĥãģ£ãģŁ ãĤĪ",
      "Ġä»ķäºĭ ãģ¯ãģ©ãģĨ",
      "Ġä»ķäºĭ ãĤĴè¦ĭãģ¤",
      "Ġä»ķäºĭ ãģ«è¡ĮãģįãģªãģķãģĦ",
      "Ġæ¥½ãģĹ ãģĭãģ£ãģŁ",
      "Ġãģ¡ãĤĩãģ£ãģ¨ æĿ¥ãģ¦",
      "Ġãģ¡ãĤĩãģ£ãģ¨ ãģĻãģ¿ãģ¾ãģĽãĤĵ",
      "Ġãģ¡ãĤĩãģ£ãģ¨ è¦ĭãģĽãģ¦",
      "ĠæĻĤéĸĵ ãģ¯ãģĤ",
      "ĠæĻĤéĸĵ ãģ«éģħ",
      "ĠæĻĤéĸĵ çµĤäº",
      "Ġé³¥ãģ¯ é£Ľ",
      "Ġé³¥ãģ¯ é³´",
      "Ġé³¥ãģ¯ æŃĮãģĦãģ¾ãģĻ",
      "ĠãĤĤãģĨä¸Ģåº¦ ãĤĦãģ£ãģ¦ãģ¿ãģ¦",
      "Ġä¸ĭãģĮãģ£ãģ¦ ãģ¦",
      "Ġä¸ĭãģĮãģ£ãģ¦ ãģĦãĤį",
      "ĠãģĺãĤĥãģĤ ãģª",
      "ĠãģĺãĤĥãģĤ ä½ķ",
      "ķãģ£è ¶Ĭ",
      "Ġãģ¨ãĤĵãģ§ãĤĤ ãģªãģĦ",
      "Ġãģ¨ãĤĵãģ§ãĤĤ ãģĤãĤĬãģ¾ãģĽãĤĵ",
      "Ġãģ¨ãĤĵãģ§ãĤĤ ãģĶãģĸãģĦãģ¾ãģĽãĤĵ",
      "Ġç§ģãģ«è¡ĮãģĭãģĽãģ¦ ãģıãģłãģķãģĦ",
      "ĠãĥĪãĥłãģ«èŃ¦åĳĬ ãģĹãģªãģķãģĦ",
      "ĠãĥĪãĥłãģ«èŃ¦åĳĬ ãģĻãĤĭ",
      "ĠãĥĪãĥłãģ«èŃ¦åĳĬ ãģĹãģ¦ãģıãģłãģķãģĦ",
      "Ġä¸Ńãģ«åħ¥ãĤĮãģ¦ ãĤĪ",
      "Ġä¸Ńãģ«åħ¥ãĤĮãģ¦ ãģıãģłãģķãģĦ",
      "ªå Īĩãģªäººãģ§ãģĻ",
      "¼ãĤĵãģ§ ãģ¦",
      "åĪĨãģĭ ãĤīãģªãģĦãĤĪ",
      "æ¬ łãģªãĤĵãģł",
      "èĩ ŃãģĦãĤĪ",
      "èĩ ´ãģĹãģ¦ãģĦãĤĭ",
      "è¾ŀ ãĤģãģ¾ãģĻ",
      "è¾ŀ åĦĢ",
      "Ġä¸Ģ äººãģł",
      "Ġä¸Ģ ãģ¤éģ",
      "ıãģĻãĤĭ ãģłãĤį",
      "Ķãģ¨ ä¸Ģç·Ĵ",
      "ãģ¥ ãģĦãģŁ",
      "ãģ¥ ãģıãģª",
      "ãģİ ãĤĭ",
      "ãģľ ãģ¦",
      "ãĥĢãĥ¡ ãģªãģ®",
      "ĠãģĨ ãĤı",
      "ĠãģĨ ãģ¾ãģı",
      "Ġãģı ãĤīãģıãĤī",
      "Ġãģı ãģ¤ãĤįãģĦãģ§",
      "ĠãģĹ ãģ¾ãģ£ãģŁ",
      "ĠãģĹ ãģıãģĺ",
      "Ġå¾ħ ãģ¦ãģ¾ãģĻ",
      "Ġå¾ħ ãģ¤ãģª",
      "Ġå¯Ĵ ãģĦ",
      "Ġå¯Ĵ ãģ£",
      "ĠåĦª ãģĹãģĦäººãģ§ãģĻ",
      "ĠåĦª ãģĹãģıãģĹãģ¦ãģĤ",
      "ãģ¯ç ©º",
      "ãģ¯ãģ©ãģĨ ãģ§ãģĻãģĭ",
      "ĠçĦ¡ æĸĻãģ§ãģĻ",
      "ĠçĦ¡ è¦ĸãģĹ",
      "Ġç¶ļ ãģĳãģ¦",
      "Ġç¶ļ ãģĳãĤį",
      "ãģ£ãģ¦è¨Ģ ãģ£ãģ¦ãģŃ",
      "ãģ¾ãģŁãģŃ ãģ£",
      "ãģ«ãģª ãģ£ãģ¦",
      "ãģ«ãģĬ ãĤĦãĤĬ",
      "ãģ«ãģĬ åº§ãĤĬ",
      "ãģ«ãģ¤ãģĦãģ¦ ãģĵãģĦ",
      "ĠæĪ »ãģ£ãģ¦ãģĬãģĦãģ§",
      "ĠæĪ ĲåĬ",
      "Ġæīĭ ãĤĴæ´ĹãģĦãģªãģķãģĦ",
      "Ġæīĭ ãģ¯ç©º",
      "ĠæĶ¾ãģ£ãģ¦ãģĬ ãģĳ",
      "ĠæĶ¾ãģ£ãģ¦ãģĬ ãģįãģªãģķãģĦãĤĪ",
      "ĠæķĻãģĪãģ¦ ãĤĪ",
      "Ġè¾ ĽãģĦ",
      "Ġè¾ ĽæĬ±",
      "Ġè¦ĭ ãģªãģĦãģ§",
      "Ġè¦ĭ ãģĽãģ¦",
      "ĠãĥĪãĥłãĤĴå ĳ¼ãĤĵãģ§",
      "ĠãĥĪãĥłãĤĴå Ĭ©ãģĳãģ¦ãĤĦãģ£ãģ¦",
      "ãĤĴå¤ ±ãģĦãģ¾ãģĹãģŁ",
      "ãģĮåĩº ãģ¡ãĤĥãģ£ãģŁ",
      "ĠãĤĨãģ£ãģıãĤĬ é£Łãģ¹ãģ¦",
      "Ġç§ģãģ¯æ°Ĺ ãģ¥ãģĦãģŁ",
      "Ġç§ģãģ¯æ°Ĺ ãĤĴå¤±ãģĦãģ¾ãģĹãģŁ",
      "Ġç§ģãģ¯ãģĿãģĨ ãģ¯æĢĿãģĦãģ¾ãģĽãĤĵ",
      "Ġç§ģãģ¯ãģĿãģĨ è¨ĢãģĦãģ¾ãģĹãģŁ",
      "Ġéĸ ĭãģĳãĤį",
      "Ġéĸ ĭãģĳãģ¦",
      "ĠéĽ¢ ãĤĮãĤį",
      "ĠéĽ¢ ãĤĮãģ¦ãģ¦",
      "Ġå½¼ãģĮ èµ°ãģ£ãģŁ",
      "Ġå½¼ãģĮ ãĤĦãģ£ãģ¦ãģ¿ãĤĭãĤĵãģł",
      "Ġå½¼ãĤĴæ įķãģ¾ãģĪãĤį",
      "Ġå½¼ãĤĴæ įķãģ¾ãģĪãģ¦",
      "å¤±ç¤¼ ãģ§ãģĻãģĮ",
      "ĠãĥĪãĥłãģ¯çŁ¥ ãģ£ãģŁ",
      "ĠãĥĪãĥłãģ¯çŁ¥ ãģ£ãģ¦ãģĦãĤĭ",
      "ĠãĥĪãĥłãģ¯åĺĺãĤĴãģ¤ ãģı",
      "ĠãĥĪãĥłãģ¯åĺĺãĤĴãģ¤ ãģĦãģŁ",
      "ĠãĤĦãģ£ãģ¦ ãĤĦãģ£ãģŁ",
      "ĠãĤĦãģ£ãģ¦ ãģ¯ãģ¿",
      "Ġå½¼ãģ¯ç¬ĳ ãģ£ãģŁ",
      "Ġå½¼ãģ¯ç¬ĳ ãģ£ãģ¦ãģĦãģŁ",
      "ĠãģĿãģĵ ãģ£ãģ¦éģ",
      "ĠãģĿãģĵ ãģ«ãģĬåº§ãĤĬ",
      "ĠãģĤãĥ¼ ãĤĵãģĹãģ¦",
      "ĠãģĤãģıãģ³ ãĤĴãģĹãģŁ",
      "ĠãģĤãģıãģ³ ãģĮåĩºãģ¡ãĤĥãģ£ãģŁ",
      "ĠãģĻãģĲ æĿ¥ãģ¦",
      "ĠãģĻãģĲ åĩºçĻº",
      "Ġå¤±æķ ¬ãģª",
      "Ġå¤±æķ ĹãģĹãģŁ",
      "Ġãģ©ãģªãģŁ ãģķãģ¾ãģ§ãģĹãĤĩãģĨ",
      "Ġä¿¡ çĶ¨ãģĹãģ¦ãģıãģłãģķãģĦ",
      "Ġä¿¡ ãģĺãģ¦ãģıãĤĮ",
      "ĠãĥĪãĥłãģ¯æīĭ ãĤĴãģµãģ£ãģŁ",
      "ĠãĥĪãĥłãģ¯æīĭ ãĤĴæĮ¯ãģ£ãģŁ",
      "ĠãĥĪãĥłãģ¯æ³³ ãģĦãģł",
      "ĠãĥĪãĥłãģ¯æ³³ ãģĦãģ§ãģĦãĤĭ",
      "ĠãĥĪãĥłãģ«èģŀãģĦãģ¦ ãģĶãĤīãĤĵ",
      "ĠãĤĤãģĨæŃ ¢ãĤģãģ¦",
      "ĠãĤĤãģĨæŃ »ãģ«",
      "åħ¥ãģ£ãģ¦ åħ¥ãģ£ãģ¦",
      "Ġä¸Ĭ åĩºæĿ¥",
      "Ġä¸Ĭ è¨ĺãĤĴ",
      "Ġç§ģãģ¯æ³³ ãģĴãģ¾ãģĻ",
      "Ġç§ģãģ¯æ³³ ãģĲãģĵãģ¨ãģĮåĩº",
      "Ġç§ģãģ¯æĢĴ ãģ£ãģŁãĤĵãģł",
      "Ġç§ģãģ¯æĢĴ ãĤĬçĭ",
      "Ġç§ģãģĮæīķ ãģĦãģ¾ãģĻ",
      "Ġç§ģãģĮæīķ ãģĦãģ¾ãģĹãĤĩãģĨ",
      "ãģĵãģ¨ãģĮãģ§ãģį ãĤĭ",
      "æŃ³ ãģ§ãģĻ",
      "æŃ³ ãģ§ãģĻãģĭ",
      "é£Ľ ãģ¹ãĤĭãĤĵãģł",
      "Ġãģ©ãģĨãģĹãģ¦ ç§ģãģªãģ®",
      "Ġãģ©ãģĨãģĹãģ¦ ãĥĢãĥ¡ãģªãģ®",
      "Ġãģ©ãģĨãĤĤ å¤±ç¤¼",
      "ä»ķäºĭ ãģ¯",
      "ĠåĲĮæĦ ıãģĻãĤĭ",
      "ĠåĲĮæĦ Łãģ§ãģĻ",
      "ĠåĲĽãģĮ éģĭè»",
      "ĠåĲĽãģĮ èµ°ãĤĮ",
      "Ġé£Łãģ¹ ãģ¾ãģĹãĤĩãģĨ",
      "Ġé£Łãģ¹ ãģ¦ãĤĤ",
      "åĬł ãģķãģĽãģ¦",
      "Ġï¼ĳï¼ ĺ",
      "Ġï¼ĳï¼ Ļ",
      "Ġç§ģãģ®è ³ªå",
      "Ġç§ģãģ®è ²łãģĳãģł",
      "Ġç§ģãĤĤãģĿãģĨ ãģ§ãģĻ",
      "Ġç§ģãĤĤãģĿãģĨ é¡ĺãģĦãģ¾ãģĻ",
      "æĸ° åĵ",
      "ĠãĤĦãģ£ãģ¦ãģ¿ãĤĪãģĨ ãĤĪ",
      "ç§ģãģ® ãģ§ãģĻ",
      "èªį ãģĹãģ¦ãģ¿ãģ¦",
      "ĠãĤ¹ãĥ Ķãĥ¼",
      "ĠãĤ¹ãĥ ĪãĥĥãĥĹ",
      "ĠãĤ¹ãĤŃãĥ¼ ãģ¯æ»ĳ",
      "ĠãĤ¹ãĤŃãĥ¼ ãģĮãģ§ãģįãģ¾ãģĻ",
      "ĠéĢ² ãĤģ",
      "ĠéĢ² ãĤĵãģ§",
      "Ġçĸ²ãĤĮãģŁãģª ãģĤ",
      "Ġçĸ²ãĤĮãģŁãģª ãģģ",
      "Ġãģ¯ãģĦ ãģ©ãģĨãģŀ",
      "Ġå¾Į ãĤįãĤĴè¦ĭãĤį",
      "Ġå¾Į ãĤĴãģ¤ãģĳãĤį",
      "Ġçģ«äºĭ ãģł",
      "ĠæĮģãģ£ãģ¦ ãģĦãģ¾ãģĻ",
      "ĠæĮģãģ£ãģ¦ ãģŁãĤĪ",
      "Ġèµ°ãĤĮ ãĤĭãĤĪ",
      "ĠãģĵãĤĮãĤĴèªŃ ãĤĵãģ§",
      "ĠãģĵãĤĮãĤĴèªŃ ãģ¿ãģªãģķãģĦ",
      "åº§ãģ£ãģ¦ ãĤį",
      "Ġæ¥½ãģĹãĤĵãģ§ ãģŃ",
      "Ġæ¥½ãģĹãĤĵãģ§ ãģįãģªãģķãģĦ",
      "åĦĢ ãĤĪãģıãģĹãģªãģķãģĦ",
      "éĿ¢ çĽ®",
      "éłŃ ãģĦãģĦ",
      "ĠåĨ·éĿĻãģ« èĢ",
      "ĠãĥĪãĥ©ãĤ¤ ãģĹãģ¾ãģĻ",
      "ĠãĥĪãĥ©ãĤ¤ ãģĹãģ¦ãģ¿ãĤĭ",
      "ĠãĥĪãĥłãģ¯æĮĳæĪ ¦ãģĹãģŁ",
      "ĠãĥĪãĥłãģ¯æĮĳæĪ ¦ãģĻãĤĭ",
      "ä¸Ģç·Ĵ ãģ«æĿ¥ãģĦãĤĪ",
      "ĠãģĦãģĦåŃĲãģ« ãģĹãģªãģķãģĦ",
      "ĠãģĦãģĦåŃĲãģ« ãģĹãģ¨",
      "ĠãģªãĤĭãģ»ãģ© ãģŃ",
      "Ġéģĵãģ«è¿·ãģ£ãģ¦ ãģĹãģ¾ãģ£ãģŁ",
      "Ġéģĵãģ«è¿·ãģ£ãģ¦ ãģĹãģ¾ãģĦãģ¾ãģĹãģŁ",
      "¡ãĤĴ ãģ¡ãĤĩ",
      "£ãģł ãģŃ",
      "¥ãģļ ãģĭãģĹãģĮ",
      "§å Īĩãģ«",
      "§ãĤ¯ ãĥĪ",
      "¨ãģ¿ çī",
      "©ãĤĴ ãģĻãĤĭ",
      "¬ãĥĵ ãģłãĤĪ",
      "®ĺ ãģł",
      "±ãģĹ ãĤĴ",
      "±ãģ® èº«ãģł",
      "²ãģĿãģĨ ãģĹãĤĪãģĨ",
      "´ãģĪãģ¦ ãĤĭ",
      "¼ãģ¿ æĢĿæ¡Ī",
      "ä¿¡ ãģĹãģ¦ãģĦãĤĭ",
      "å«Į ãĤĴãģ¨",
      "å¸³éĿ¢ ãģªãĤĵãģł",
      "æĤ ŁãģĮ",
      "æĽ ²ãģĮãģ£ãģ¦",
      "æ½Ķ ãģł",
      "æ©Ł å«ĮãĤĴãģ¨",
      "æ¸Ľ ãģ«ãģĹãĤįãĤĪ",
      "çħ §ãģ®ãģĵãģ¨",
      "çĲ ĨãģĻãĤĭ",
      "çĴ §",
      "çĸ ĳãģ£ãģŁ",
      "çŃ ĶãģĪ",
      "é¹¿ ãģª",
      "ĠãĢ Į",
      "ĠãĤĪãģĨ ãģĵãģĿ",
      "ĠãģĦãģ£ ãģĹãĤĩãģ«æĿ¥ãģªãģķãģĦ",
      "Ĥãģ£ãģ¦ãģĦãģŁ ãĤĵãģł",
      "ĥãģĴ ãģŁ",
      "ĥãģĪãģ¦ è¦ĭãĤįãĤĪ",
      "ħãĥ¼ ãģĹãģ¦",
      "ĪãģĹ ãģ¡ãĤĥãģ£ãģŁãĤĪ",
      "ĵãĤĴå¤ §åĪĩãģ«",
      "ķãĤ §ãĤ¯ãĥĪ",
      "ķıãģ« çŃĶãģĪ",
      "Ĺãģł ãģ£ãģŁ",
      "ĹãģŃ ãģĩãĥ¼",
      "ĺåľ ¨ãģĻãĤĭ",
      "ĽãģĹãģ¦ ãģĬãĤĬãģ¾ãģĻ",
      "Ľ¸ãģįãģª ãĤĪ",
      "ľãģ£ãģŁ ãĤĵãģ§ãģĻ",
      "ŁãģĻãĤĭ ãĤĪ",
      "łãģĦ ãģ§ãģĻãģĭ",
      "ãĤ¸ãĥ£ãĥ³ãĥĹ ãģ§ãģįãĤĭãĤĪ",
      "ãĤĢãģĵãģ¨ãģĮãģ§ãģį ãģ¾ãģĻ",
      "ï¼ĳï¼ ķ",
      "ï¼Ķï¼ ķ",
      "ãĥĲãĤ «ãģª",
      "Ġãģ¤ãģĦãģ¦ ãģįãģ¦",
      "Ġãģ«ãģ£ ãģĵãĤĬ",
      "Ġãģµãģĸ ãģĳãģªãģĦãģ§",
      "ĠãģİãĤ ħãĥ¼ãģĹãģ¦",
      "Ġãģľãģ ²ãģĿãģĨãģĹãĤĪãģĨ",
      "ĠåĺĺãĤĴãģ¤ ãģıãģª",
      "ĠåĪĩ ãĤīãģªãģĦãģ§",
      "Ġå¿ĻãģĹãģĦ ãģ§ãģĻ",
      "Ġåĭĩ æ°ĹãĤĴåĩº",
      "Ġå¼ķãģ£è¾ ¼ãĤĵãģ§ãģ¦",
      "Ġå¦Ļ ãģłãģª",
      "Ġå®Į çĴ§",
      "Ġå°ĳ ãģĹéĿĻãģĭãģ«",
      "Ġå·¦ãģ« æĽ²ãģĮãģ£ãģ¦",
      "Ġå¹³æ°Ĺ ãģłãĤĪ",
      "ĠåºĬ ãģ«ä¼",
      "ĠåĪ©åı £ãģłãģŃ",
      "Ġåīį è¿°åıĤ",
      "Ġåĳ¨ãĤĬ ãģ®äºº",
      "ĠåĽ³æ ĺŁãģ§ãģĻ",
      "ãģ¯åŃ ĺåľ¨ãģĻãĤĭ",
      "ãģĹä¸ĭ ãģķãģĦ",
      "ãģŁãģĹãģª ãģ®",
      "ĠçŁ¥ ãĤĭãĤĤ",
      "Ġç¬ĳ ãģ£ãģ¡ãĤĥãģ£ãģŁ",
      "Ġç¢º ãģĭãģłãĤĪ",
      "Ġçľł ãģĦ",
      "Ġç¥ŀ ãģ¯åŃĺåľ¨ãģĻãĤĭ",
      "Ġç²¾ ä¸ĢæĿ¯",
      "Ġçīĩä»ĺ ãģĳãģªãģķãģĦãĤĪ",
      "ĠçļĨãģķãĤĵ ãģĬä¹Ĺ",
      "ĠçľŁ éĿ¢çĽ®",
      "ãģ§ãģįãģ¦ ãģĦãĤĭ",
      "ãģ«å¸° ãģ£ãģ¦æĿ¥ãģªãģķãģĦ",
      "Ġç§ģãģ¨ çµĲå©ļ",
      "Ġç§ģéģ Ķãģ¨ä¸Ģç·Ĵ",
      "Ġç§ģãģ«ãģ¤ãģĦãģ¦ ãģįãģ¦",
      "Ġç§ģãģ£ãģ¦åĨ ´ãģĪãģ¦ãĤĭ",
      "Ġæ³£ ãģĭãģªãģĦãģ§",
      "Ġæīķ ãģĦãģ¾ãģĹãģŁ",
      "Ġæ´Ĺ ãģ£ãģ¦ãģįãģ¦",
      "ĠæºĢ ãĤ¿ãĥ³ãģ«ãģĹãģ¦ãģıãģłãģķãģĦ",
      "Ġæįķãģ¾ãģĪ ãģŁ",
      "Ġæ®ĭ å¿µãģª",
      "Ġæ¿¡ ãĤĮãģ¡ãĤĥãģ£ãģŁ",
      "Ġæļĩ ãģ§ãģĻãĤĪ",
      "Ġæ·· ãģľãģ¦",
      "ĠæĦı è¦ĭãģĮä¸Ģ",
      "ĠæĬ¼ãģĻ ãģªãĤĪ",
      "ĠæĸĩçĦ¡ ãģĹãģªãĤĵãģł",
      "ĠãĥĢãĥ¡ ãģłãģ£ãģ¦è¨Ģ",
      "ĠãĥĲãĤ¤ ãĥĲãĤ¤",
      "Ġãĥªãĥ©ãĥĥãĤ¯ãĤ¹ ãģĹãģ¦",
      "Ġãĥªãĥĥãĥģ ãģ§ãģĻ",
      "Ġãĥ¯ãĤ ©",
      "Ġãĥıãĥ¼ ãĤ¤",
      "ĠãĥĲãĥĥãĥģ ãĥª",
      "Ġãĥĳãĥ¼ãĥ ķãĤ§ãĤ¯ãĥĪ",
      "ĠãĥĻãĥĥ ãĥīãģ¸ãģĦãģĳ",
      "Ġè§¦ãĤĭ ãģª",
      "Ġè¨± ãģĹãģ¦",
      "Ġè«¦ãĤģ ãĤį",
      "Ġè¬Ŀ ãĤĬãģªãģķãģĦ",
      "Ġè¶ħ èĩŃãģĦãĤĪ",
      "Ġè¿ĳ ãģ¥ãģıãģª",
      "ĠãĥĪãĥłãģ® æ©Łå«ĮãĤĴãģ¨",
      "ĠãĥĪãĥłãĤĴè¦ĭãģ¤ ãģĳãģ¦",
      "ãĤĴåı ĸãģ£ãģ¦ãģĦãĤĭ",
      "ãĤĴç¢º ä¿¡ãģĹãģ¦ãģĦãĤĭ",
      "ãģĭåĪĨãģĭ ãĤĭ",
      "ãģĮãĤī ãģ©ãģĨãĤĤãģĿãģĨ",
      "ĠãĤ«ãĥĥ ãĤ³ãģĦãģĦ",
      "ĠãĤ¯ãĤ¿ ãĤ¯ãĤ¿",
      "ĠãĤ¿ãĥ Ģãģ§ãģĻãĤĪ",
      "Ġç§ģãģ¯è¡Į ãģĭãĤĮãģ¾ãģĽãĤĵ",
      "Ġç§ģãģ¯ãĤĦ ãĤģãģ¾ãģĻ",
      "Ġç§ģãģ¯ä¸Ģ äººãģł",
      "Ġç§ģãģ¯è¡Įãģĳ ãģ¾ãģĽãĤĵ",
      "Ġç§ģãģ¯çŁ¥ ãĤīãģªãģĦ",
      "Ġç§ģãģ¯ãĥĪãĥł ãģ§ãģĻ",
      "Ġç§ģãģ¯ãģ¤ãģĦãģ¦ ãģĦãĤĭ",
      "Ġç§ģãģ¯çĸ²ãĤĮ ãģŁ",
      "Ġç§ģãģ¯è¦ļ æĤŁãģĮ",
      "Ġç§ģãģ¯ãģĵãģĵ ãģ§é£Łãģ¹ãģ¾ãģĻ",
      "Ġç§ģãģ¯éĢ ļãĤĬãģ¾ãģĻ",
      "Ġç§ģãģ¯ãģĿãĤĮãĤĴ çĸĳãģ£ãģŁ",
      "Ġç§ģãģ¯èµ°ãĤĭ ãģĵãģ¨ãģĮãģ§ãģįãĤĭ",
      "Ġç§ģãģ¯ç¬ĳãģ£ãģ¦ ãģĹãģ¾ãģ£ãģŁ",
      "Ġç§ģãģ¯éħĶ ãģ£ãģ¦ãģĦãģªãģĦ",
      "Ġç§ģãģ¯ãģŁãģ° ãģĵãĤĴå",
      "ĠéĻį åıĤãģĹãģ¾ãģĻ",
      "ĠéĽ»è©± ãģĹãģ¦ãģŃ",
      "Ġé¡Ķãģ¨ æīĭãĤĴæ´ĹãģĦãģªãģķãģĦ",
      "Ġé¦¬ é¹¿ãģª",
      "Ġéĩĳ æ¬łãģªãĤĵãģł",
      "ĠéįµãĤĴ éĸĭãģĳãĤį",
      "Ġéļł ãĤĮãĤį",
      "ãģįãģĤ ãģĮãģ£ãģŁ",
      "ä¸ĬãģĴ ãģł",
      "ãģ¨ãģĦãģ£ãģ¦ ãģıãģłãģķãģĦ",
      "Ġå½¼ãģ® äºĭãģ¯å¿ĺ",
      "Ġå½¼ãĤī ãģ«èģŀãģįãģªãģķãģĦ",
      "Ġå½¼ãĤĴè¦ĭ ãģŁ",
      "ãĤĬè¨Ģ ãģĦãģªãģķãģĦ",
      "ãĤĬå± ĭãģ§ãģĻ",
      "å¤ªãģ£ãģ¦ãĤĭ ãģĭãģª",
      "ĠãĥĪãĥłãģ¯ãģĬ è¾ŀåĦĢ",
      "ĠãĥĪãĥłãģ¯ãĤĦ ãĤģãģŁ",
      "ĠãĥĪãĥłãģ¯é£ ²ãĤĵãģł",
      "ĠãĥĪãĥłãģ¯å¼ ķãģ£è¶Ĭ",
      "ĠãĥĪãĥłãģ¯ç¤¼ ãĤĴãģĹãģŁ",
      "ĠãĥĪãĥłãģ¯é£Łãģ¹ ãģŁ",
      "ĠãĥĪãĥłãģ¯ç· ¨ãģ¿çī",
      "ĠãĥĪãĥłãģ¯ç«ĭ ãģ£ãģŁ",
      "ĠãĥĪãĥłãģ¯éĢ ĥãģĴãģŁ",
      "ĠãĥĪãĥłãģ¯å¯Ŀ ãģ¦ãģĦãģŁ",
      "ĠãĥĪãĥłãģ¯éģĭè» ¢ãģĹãģŁ",
      "ĠãĥĪãĥłãģ¯åĭķ ãģĦãģŁ",
      "ĠãĥĪãĥłãģ¯çľł ãģ£ãģ¦ãģĦãģŁ",
      "ĠãĥĪãĥłãģ¯èĲ½ãģ¡ ãģŁ",
      "ĠãģĬè¡Į åĦĢãĤĪãģıãģĹãģªãģķãģĦ",
      "ĠãģĬãĤĤ ãģ¡ãĤĥ",
      "ĠãģĬè¨ ±ãģĹãĤĴ",
      "ĠãģĬä½ ĵãĤĴå¤§åĪĩãģ«",
      "ĠãģĬãģ¾ãģĪ ãģ®åĭĿãģ¡ãģł",
      "ĠãģĬæīĭ ä¸ĬãģĴãģł",
      "ĠãģĬæīĭä¼Ŀ ãģĦãģĹãģ¾ãģĻãĤĪ",
      "ĠãģĬéĽ»è©± ãģıãģłãģķãģĦ",
      "ĠãģĬåħĪãģ« ãģ©ãģĨãģŀ",
      "ĠãģĬå¾ħ ãģ¡ãģıãģłãģķãģĦ",
      "ĠãģĬèĮ ¶ãģ§ãģĻ",
      "ĠãģĬãģĦãģĬ ãģĦ",
      "Ġãģĵãģ¡ãĤī ãģ«æĿ¥ãģªãģķãģĦ",
      "è¡Įãģ£ãģ¨ ãģĦãģ§",
      "Ġä¹Ĺ ãĤĮãĤĪ",
      "ĠäºĨ è§£",
      "Ġä¼ı ãģĽãģ¦",
      "ãģĦãģ¦ãģĦãģ¾ãģĻ ãĤĪ",
      "ĠãĤĦãģ£ãģ» ãĥ¼",
      "Ġå½¼ãģ¯è¦ ªåĪĩãģªäººãģ§ãģĻ",
      "Ġå½¼ãģ¯ãģĦãģĦ äººãģ§ãģĻ",
      "Ġå½¼ãģ¯ä¸Ģ æĸĩãģª",
      "Ġå½¼ãģ¯ãĥĪãĥł ãģ§ãģĻãģĭ",
      "Ġå½¼ãģ¯åĺĺãĤĴãģ¤ ãģĦãģ¦ãģĦãĤĭ",
      "Ġå½¼ãģ¯éĽ»è©± ãĤĴåĪĩ",
      "Ġå½¼ãģ¯æĪĲ åĬŁãģĹãģŁ",
      "Ġå½¼ãģ¯å¹´ ãĤĴåıĸãģ£ãģ¦ãģĦãĤĭ",
      "Ġå½¼ãģ¯éłŃ ãģĮãģĦãģĦ",
      "Ġå½¼ãģ¯ãģĨãģĿ ãĤĴãģ¤ãģĦãģ¦ãģĦãĤĭ",
      "Ġå½¼ãģ¯å¤ĸé£ ŁãģĹãģŁ",
      "ĠãģĿãĤĵãģª ãĥĲãĤ«ãģª",
      "ĠãģĿãģ®ãģĵãģ¨ ãĤĴç¢ºä¿¡ãģĹãģ¦ãģĦãĤĭ",
      "ĠãģĤãģĸ ãģ£ãģĻ",
      "ĠãģĤãģ£ãģŁãģĭãģı ãģĹãģ¦ãģªãģķãģĦ",
      "ĠãģĤãģĤæģ ĲãģĦ",
      "ĠåĥķãģĮæīķ ãģ£ãģ¨ãģĵãģĨ",
      "Ġåĥķãģ®ãģĬãģĶãĤĬ ãģ§ãģĻãĤĪ",
      "ĠãģĻãģ¿ãģ¾ãģĽ ãĤĵãģ§ãģĹãģŁ",
      "Ġå¤±ç¤¼ ãģĹãģ¾ãģĹãģŁ",
      "Ġå¤§äºº ãģĹãģıå¾ħãģ£ãģ¦",
      "Ġå¤ªãĤīãģªãģĦ ãĤĪãģĨãģ«",
      "Ġå¤īãĤı ãĤĬãģªãģĦ",
      "Ġå¤ĸãģ« åĩºãĤį",
      "Ġãģ©ãģ®ãģıãĤī ãģĦæ·±ãģĦ",
      "Ġç§ģãģ¯åĭĩ æķ¢ãģł",
      "Ġç§ģãģ¯å¼ķãģ£è¾ ¼ãģ¿æĢĿæ¡Ī",
      "Ġç§ģãģ¯åħ¬å¹ ³ãģł",
      "Ġç§ģãģ¯åĩł å¸³éĿ¢ãģªãĤĵãģł",
      "Ġç§ģãģ¯åĲĮæĦ ıãģĻãĤĭãģłãĤį",
      "ĠãĤĦãĤģãģ¡ãĤĥ ãĥĢãĥ¡",
      "ĠãĥĪãĥłãģ¯æīķ ãģ£ãģŁ",
      "ĠãĥĪãĥłãģ¯æĸĻ çĲĨãģĻãĤĭ",
      "Ġä¿ºãģŁãģ¡ ãģ«ãģ¤ãģĦãģ¦ãģĵãģĦ",
      "ĠãĥĪãĥłãģ«ä¼Ŀ ãģĪãģ¦",
      "ĠãĥĪãĥłãģ«æķ ĻãģĪãģ¦",
      "ĠãĥĪãĥłãģ«ä¼ļ ãģ£ãģ¦ãģįãģ¦",
      "ĠãĥĪãĥłãģ«æīĭ ç´ĻãĤĴæ",
      "ĠãĥĪãĥłãģ«å¾ ĵãģĪ",
      "ĠãģĵãĤĮåı ĸãģ£ãģ¦ãģĬãģĦãģ¦",
      "ĠãģĵãĤĮéģĭ ãĤĵãģ§",
      "ĠãģĵãĤĮç¢º èªįãģĹãģ¦ãģ¿ãģ¦",
      "ĠãģĵãĤĮæĮģ ãģ£ãģ¦",
      "ĠãģĵãĤĮãģĮæ¬ ²ãģĹãģĦ",
      "Ġãģĵãģĵãģ«ãģĤ ãĤĬãģ¾ãģĻ",
      "ĠãģĿãĤĮå¥½ ãģį",
      "ĠãģĿãĤĮãģ§ãģĦãģĦ ãĤĪ",
      "ĠãģĿãĤĮãģĮä»ķäºĭ ãģ§ãģĻ",
      "ĠãĤĤãģĨéģħ ãģĦãĤıãĤĪ",
      "ĠãĤĤãģĨå¯Ŀ ãģªãģķãģĦ",
      "ĠãģķãģĤãģ©ãģĨãģŀ ãģĬåħ¥ãĤĬãģıãģłãģķãģĦ",
      "ĠãģķãģĤä¹Ĺ ãģ£ãģ¦",
      "Ġæ°Ĺãģ«åħ¥ ãģ£ãģ¦ãģ¾ãģĻ",
      "Ġèª°ãģ«ãĤĤ åĪĨãģĭãĤīãģªãģĦãĤĪ",
      "Ġç§ģãģ¯æ®ĭ ãĤĮãģ¾ãģĻ",
      "Ġç§ģãģ¯æ½Ķ çĻ½ãģł",
      "Ġç§ģãģ¯æļĩ ãģł",
      "Ġç§ģãģ¯æ¸ħ æ½Ķãģł",
      "Ġç§ģãģ¯æĭį æīĭãģĹãģŁ",
      "ĠåĩºçĻº ãģĹãģŁ",
      "Ġç§ģãģĮä½ ľãģ£ãģŁãĤĵãģ§ãģĻ",
      "Ġç§ģãģĮä½¿ ãģ£ãģ¦ãģ¾ãģĻ",
      "Ġç§ģãģĮå£Ĭ ãģĹãģŁ",
      "Ġç§ģãģĮä¸Ģçķ ª",
      "Ġè¡Įãģĭãģª ãģıãģ¡ãĤĥ",
      "Ġè¡ĮãģĳãĤĭ ãģĭãģª",
      "ĠåĭĿãģ¦ãĤĭ ãģķ",
      "ĠãģĤãĤĬå¾ ĹãģŃãģĩãĥ¼",
      "ĠãģĦãģĦåĬł æ¸Ľãģ«ãģĹãĤįãĤĪ",
      "ĠæĤ²æ ĥ¨",
      "ĠãģĿãģĨæĢĿ ãģĦãģ¾ãģĻ",
      "ĠãģĿãģĨãģĦãģĨ ãģĵãģ¨",
      "ĠãģĿãģĨãģłãģ¨ ãģĦãģĦãģĳãģ©",
      "ĠãģĿãģĨè¨Ģãģ£ãģ¦ãģĬãģĦãģŁãģ¯ãģļ ãģł",
      "ĠãģĵãĤĵãģ«ãģ¡ãģ¯ãĥĪãĥł ãģķãĤĵ",
      "ãĤ¯ãĥĵ ãģ§ãģĻãģĭ",
      "Ġãģªãģľ ãģĦãģĳãģªãģĦãģ®",
      "Ġãģ¾ãģĤè¡Įãģ£ãģ¦ãģ¿ ãĤĪãģĨ",
      "Ġçĸ²ãĤĮãģ¦ãģĦãĤĭ ãĤĵãģł",
      "Ġç§ģãģ®è¨Ģãģ£ãģ¦ãĤĭ ãģĵãģ¨",
      "Ġç§ģãģ®ãģĬãģĶãĤĬ ãģł",
      "Ġç§ģãĤĤåıĤ åĬłãģķãģĽãģ¦",
      "Ġç§ģãĤĤãĤĤãģĨå¹´ ãģł",
      "Ġç§ģãĤĤåħ¥ãĤĮãģ¦ ãģıãģłãģķãģĦ",
      "Ġç§ģãģ¯èŃ¦å ®ĺãģł",
      "Ġç§ģãģ¯èªŃ ãĤĢãģĵãģ¨ãģĮãģ§ãģįãģ¾ãģĻ",
      "Ġç§ģãģ¯è²§ä ¹ıãģ§ãģĻ",
      "Ġç§ģãģ¯èĩªçĶ ±ãģ®èº«ãģł",
      "Ġä»²éĸĵ ãģ«ãģªãģ£ãģ¦",
      "Ġä»ĬãģĻ ãģĲãģĿãĤĮãĤĴ",
      "Ġä½ķãģ§ãĤı ãģŁãģĹãģªãģ®",
      "Ġä½ķãģ«ä½¿ ãģĨãģ®",
      "Ġä½ķãģĮèµ· ãģĵãģ£ãģŁãĤĵãģł",
      "Ġä½ķãģ®ãģŁãĤģ ãģ«",
      "Ġä½ķè¨Ģãģ£ãģ¦ãģĦãĤĭ ãģĭåĪĨãģĭãĤĭ",
      "Ġåĥķãģ¯å¿ ĻãģĹãģĦ",
      "Ġåĥķãģ¯èµ· ãģįãģĤãģĮãģ£ãģŁ",
      "Ġåĥķãģ¯èĭ ¥ãģĦ",
      "Ġåĥķãģ¯ãĥªãĥ©ãĥĥãĤ¯ãĤ¹ ãģĹãģŁ",
      "Ġèª°ãģĮè¡Įãģı ãģ®",
      "Ġèª°ãģĮèµ°ãģ£ãģŁ ãģ®",
      "Ġèª°ãģĮåĭĿãģ£ãģŁ ãģ®",
      "Ġèª°ãģĮæĿ¥ãģ¾ãģĹãģŁ ãģĭ",
      "Ġèª°ãģĮæŃ»ãĤĵãģł ãģ®",
      "ĠæŃ¢ãģ¾ ãĤĮ",
      "ĠæŃ»ãģª ãģªãģĦãģ§",
      "ĠæŃĮãģĮ æŃĮãģĪãĤĭ",
      "ĠãĥĪãĥłãĤĴæ®´ ãĤĮ",
      "ĠãĥĪãĥłãĤĴæİ¢ãģĹãģ¦ ãģįãģ¦",
      "ĠãĥĪãĥłãĤĴæŃ¢ãĤģ ãĤĭãĤĵãģł",
      "Ġå½¼ãĤīãģ¯åĺĺãĤĴãģ¤ ãģĦãģŁ",
      "Ġå½¼ãĤīãģ¯åİ »ãģ£ãģŁ",
      "Ġå½¼ãĤīãģ¯æ³³ ãģĦãģł",
      "Ġä¿ºãģ¯ãģĦãģĭ ãģĹãģ¦ãĤĭ",
      "Ġä¿ºãģ¯ãĥĩãĥ ĸãģł",
      "Ġä¿ºãģ¯äººéĸĵ ãģł",
      "Ġä¿ºãģ¯ãĤ¯ãĥ¼ãĥ «ãģł",
      "Ġä¿ºãģ¯éĸĵéģķãģ£ãģ¦ãģĦãĤĭ ãģ®ãģĭ",
      "ĠéłŃãĤĴä¸ĭ ãģĴãĤį",
      "ĠãģĿãĤĮãģ¯çĦ¡ æĸĻãģ§ãģĻ",
      "ĠãģĿãĤĮãģ¯æĸ° ãģĹãģĦãģ§ãģĻ",
      "ĠãģĿãĤĮãģ¯èªį ãĤģãĤĭ",
      "ĠãģĿãĤĮãģ¯ãĥĨãĥ ¬ãĥĵãģłãĤĪ",
      "ĠãģĿãĤĮãģ¯å¤±æķ Ĺãģłãģ£ãģŁ",
      "Ġé£Ľãģ³è¶Ĭ ãģĪãĤį",
      "ĠæĹ©ãģıå®¶ ãģ«å¸°ãģ£ãģ¦æĿ¥ãģªãģķãģĦ",
      "Ġãģ¡ãĤĥãĤĵãģ¨ åº§ãģ£ãģ¦ãĤį",
      "Ġç´ĦæĿ ŁãģĻãĤĭãĤĪ",
      "ĠçĶ·ãģ«ãģª ãĤĮãĤĪ",
      "ĠæĻ¯æ°Ĺ ãģ¯ãģ©ãģĨãģ§ãģĻãģĭ",
      "ĠæĢ¥ãģİ ãģªãģķãģĦ",
      "ĠæĢ¥ãģĦãģ§æĪ» ãĤĮ",
      "ĠãĥĪãĥłãģĮç¾¨ãģ¾ ãģĹãģĦãĤĪ",
      "ĠéĢ£çµ ¡ãĤĴãģ¡ãĤĩ",
      "ĠéĢĢå± ĪãģĹãģ¡ãĤĥãģ£ãģŁãĤĪ",
      "ĠéģħãģĻ ãģİãĤĭ",
      "ĠéģķãģĨ ãģ£ãģ¦ãģ°",
      "Ġé³¥ãģĮåĽ ĢãĤĭ",
      "ãģĵãģĵãģ«ãģĤ ãĤĭãĤĪ",
      "ĠãģĬçĸ²ãĤĮæ§ĺ ãģ§ãģĹãģŁ",
      "ĠãĤĤãģĨä¸ĢåĽ ŀãĤĦãģ£ãģ¦ãģ¿ãģ¦",
      "Ġè¡ĮãģıãĤĵãģĺ ãĤĥãģªãģĦ",
      "Ġæľ¬æ°Ĺãģ§è¨Ģãģ£ãģ¦ãĤĭ ãĤĵãģ§ãģĻ",
      "Ġå®¶ãģ«æĪ» ãģ£ãģ¦ãģįãģªãģķãģĦ",
      "Ġå®¶ãģ«ãģ¨ãģ© ãģ¾ãĤĬãģªãģķãģĦ",
      "Ġç«ĭãģ¡åħ¥ãĤĬãĤĴç¦ ģãģļ",
      "Ġå½¼å¥³ãģ¯æ³£ ãģĦãģŁ",
      "ãĥīãĥ«ãĤĴ ãĤĦãĤĭ",
      "ãĥīãĤĴèĲ½ ãģ¨ãģĽ",
      "Ġãģ¯ãģ£ãģį ãĤĬè¨ĢãģĦãģªãģķãģĦ",
      "ĠãģĶä¹Ĺè» Ĭé¡ĺãģĦãģ¾ãģĻ",
      "Ġå¾¡åħ įãģªãģķãģĦ",
      "Ġåıįå¯ ¾ãģ§ãģĻ",
      "Ġçģ«ãģ¯ç ĩĥãģĪãĤĭ",
      "Ġç§ģãģŁãģ¡ãģ¯çĶ· ãģ§ãģĻ",
      "Ġç§ģãģŁãģ¡ãģ¯åĬªåĬ ĽãģĹãģ¦ãģĬãĤĬãģ¾ãģĻ",
      "ĠãĥĪãĥłãĤĴéĢ£ãĤĮãģ¦ ãģįãģ¦",
      "ĠåĥķãĤīãģ¯å¾ħ ãģ£ãģŁ",
      "ĠåĥķãĤīãģ¯æģ ¥ãģļãģĭãģĹãģĮ",
      "Ġãģĵãģĵãģ§ãĤµãĤ¤ ãĥ³ãģĹãģ¦",
      "Ġãģ©ãģĨãģŀãģĬè©± ãģĹä¸ĭãģķãģĦ",
      "ĠãģªãĤĵãģ¦åı¯æĦ ĽãģĦãĤĵãģ§ãģĹãĤĩãģĨ",
      "Ġä»ķäºĭãĤĴè¦ĭãģ¤ ãģĳãĤį",
      "ĠæĻĤéĸĵãģ¯ãģĤ ãĤĬãģ¾ãģĻ",
      "ĠæĻĤéĸĵãģ«éģħ ãĤĮãģªãģĦãģ§",
      "ĠæĻĤéĸĵçµĤäº Ĩ",
      "Ġé³¥ãģ¯é£Ľ ãģ¶",
      "Ġé³¥ãģ¯é³´ ãģı",
      "Ġä¸Ģãģ¤éģ ¸ãĤĵãģ§",
      "ĠãģĨãģ¾ãģı è¡Įãģ£ãģŁ",
      "ĠãģıãĤīãģıãĤī ãģĻãĤĭ",
      "ĠãģĹãģıãģĺ ãģ£ãģŁ",
      "ĠåĦªãģĹãģıãģĹãģ¦ãģĤ ãģĴãģªãģķãģĦ",
      "ĠçĦ¡è¦ĸãģĹ ãĤį",
      "ĠæĪĲåĬ Łãģł",
      "Ġæīĭãģ¯ç©º ãģĦãģ¦ãģĦãģ¾ãģĻãĤĪ",
      "Ġè¾ĽæĬ± ãģĹãģªãģķãģĦ",
      "Ġéĸĭãģĳãģ¦ ãģıãĤĮ",
      "ĠãĤĦãģ£ãģ¦ãģ¯ãģ¿ ãģŁ",
      "ĠãģĿãģĵãģ£ãģ¦éģ łãģĦãģ§ãģĻãģĭ",
      "ĠãģĻãģĲåĩºçĻº ãģĹãģªãģķãģĦ",
      "Ġãģ©ãģªãģŁãģķãģ¾ãģ§ãģĹãĤĩãģĨ ãģĭ",
      "Ġä¿¡ãģĺãģ¦ãģıãĤĮ ãĤĪ",
      "ĠãĤĤãģĨæŃ»ãģ« ãģĿãģĨ",
      "Ġä¸Ĭè¨ĺãĤĴ ãģĶè¦§ãģıãģłãģķãģĦ",
      "Ġç§ģãģ¯æ³³ãģĲãģĵãģ¨ãģĮåĩº æĿ¥ãģ¾ãģĻ",
      "Ġç§ģãģ¯æĢĴãĤĬçĭ Ĥãģ£ãģ¦ãģĦãģŁãĤĵãģł",
      "ĠåĲĽãģĮéģĭè» ¢ãģĹãģ¦",
      "Ġé£Łãģ¹ãģ¦ãĤĤ ãģĦãģĦãģ§ãģĻãģĭ",
      "Ġç§ģãģ®è³ªå ķıãģ«çŃĶãģĪ",
      "æĸ°åĵ ģãģªãģ®",
      "ĠãĤ¹ãĥĶãĥ¼ ãĥīãĤĴèĲ½ãģ¨ãģĽ",
      "ĠãĤ¹ãĥĪãĥĥãĥĹ ãģ£ãģ¦è¨Ģãģ£ãģ¦ãģŃ",
      "ĠãĤ¹ãĤŃãĥ¼ãģ¯æ»ĳ ãĤĭ",
      "ĠåĨ·éĿĻãģ«èĢ ĥãģĪãģ¦è¦ĭãĤįãĤĪ",
      "ĠãģĦãģĦåŃĲãģ«ãģĹãģ¨ ãģįãģªãģķãģĦ",
      "Ġãģ«ãģ£ãģĵãĤĬ ç¬ĳãģ£ãģ¦",
      "Ġåĭĩæ°ĹãĤĴåĩº ãģĹãģ¦",
      "Ġå°ĳãģĹéĿĻãģĭãģ« ãģĹãģ¦ãģĦãģªãģķãģĦ",
      "ĠåºĬãģ«ä¼ ıãģĽãĤį",
      "Ġåīįè¿°åıĤ çħ§ãģ®ãģĵãģ¨",
      "Ġåĳ¨ãĤĬãģ®äºº ãģ«èģŀãģĦãģ¦ãģ¿ãģ¦",
      "ĠçŁ¥ãĤĭãĤĤ ãĤĵãģĭ",
      "Ġç²¾ä¸ĢæĿ¯ ãĤĦãģ£ãģ¦ãģ¿ãģªãģķãģĦ",
      "ĠçļĨãģķãĤĵãģĬä¹Ĺ ãĤĬãģıãģłãģķãģĦ",
      "ĠçľŁéĿ¢çĽ® ãģ«ãģĬãĤĦãĤĬ",
      "Ġç§ģãģ¨çµĲå©ļ ãģĹãģ¦",
      "Ġç§ģéģĶãģ¨ä¸Ģç·Ĵ ãģ«æĿ¥ãģªãģķãģĦ",
      "Ġæ®ĭå¿µãģª ãģĮãĤīãģ©ãģĨãĤĤãģĿãģĨ",
      "ĠæĦıè¦ĭãģĮä¸Ģ èĩ´ãģĹãģ¦ãģĦãĤĭ",
      "ĠãĥĢãĥ¡ãģłãģ£ãģ¦è¨Ģ ãģ£ãģŁãģ§ãģĹãĤĩ",
      "ĠãĥĪãĥłãģ®æ©Łå«ĮãĤĴãģ¨ ãĤĮ",
      "ĠãĤ¯ãĤ¿ãĤ¯ãĤ¿ ãģłãĤĪ",
      "Ġç§ģãģ¯è¦ļæĤŁãģĮ ãģ§ãģįãģ¦ãģĦãĤĭ",
      "Ġç§ģãģ¯ãģŁãģ°ãģĵãĤĴå Ĳ¸ãģĦãģ¾ãģĻ",
      "Ġå½¼ãģ®äºĭãģ¯å¿ĺ ãĤĮãģªãģķãģĦ",
      "ĠãĥĪãĥłãģ¯ãģĬè¾ŀåĦĢ ãĤĴãģĹãģŁ",
      "ĠãĥĪãĥłãģ¯å¼ķãģ£è¶Ĭ ãģĹãģŁ",
      "ĠãĥĪãĥłãģ¯ç·¨ãģ¿çī ©ãĤĴãģĻãĤĭ",
      "Ġå½¼ãģ¯ä¸Ģæĸĩãģª ãģĹãģł",
      "Ġå½¼ãģ¯éĽ»è©±ãĤĴåĪĩ ãģ£ãģŁ",
      "Ġå¤§äººãģĹãģıå¾ħãģ£ãģ¦ ãģªãģķãģĦ",
      "Ġç§ģãģ¯å¼ķãģ£è¾¼ãģ¿æĢĿæ¡Ī ãģ§ãģĻ",
      "Ġç§ģãģ¯åĲĮæĦıãģĻãĤĭãģłãĤį ãģĨ",
      "ĠãĥĪãĥłãģ«æīĭç´ĻãĤĴæ Ľ¸ãģįãģªãĤĪ",
      "Ġç§ģãĤĤåıĤåĬłãģķãģĽãģ¦ ãģıãģłãģķãģĦ",
      "Ġä»ĬãģĻãģĲãģĿãĤĮãĤĴ ãĤĦãĤĬãģªãģķãģĦ",
      "ĠéĢ£çµ¡ãĤĴãģ¡ãĤĩ ãģĨãģłãģĦ",
      "ĠåĥķãĤīãģ¯æģ¥ãģļãģĭãģĹãģĮ ãĤĬå±ĭãģ§ãģĻ",
      "Ġç§ģãģ®è³ªåķıãģ«çŃĶãģĪ ãģªãģķãģĦ",
      "Ġæ®ĭå¿µãģªãģĮãĤīãģ©ãģĨãĤĤãģĿãģĨ ãĤīãģĹãģĦ"
    ]
  }
}